const unsigned long weights[35240]=
{0xffffffffffffffff,0x404040404040404,0x404040404040404,0xb0b0b0b0b0b0b0b,0x4545454545454545,0x4d4d4d4d4d4d4d4d,0xf8f8f8f8f8f8f8f8,
 0xcccccccccccccccc,0xd9d9d9d9d9d9d9d9,0xe3e3e3e3e3e3e3e3,0x0,0xfafafafafafafafa,0x1a1a1a1a1a1a1a1a,0x7777777777777777,0x7878787878787878,
 0xf3f3f3f3f3f3f3f3,0xb7b7b7b7b7b7b7b7,0xc7c7c7c7c7c7c7c7,0x303030303030303,0xf7f7f7f7f7f7f7f7,0xebebebebebebebeb,0xf2f2f2f2f2f2f2f2,
 0x1c1c1c1c1c1c1c1c,0x909090909090909,0x1111111111111111,0xe6e6e6e6e6e6e6e6,0xf3f3f3f3f3f3f3f3,0x0,0x0,0x0,0x0,0x0,0x0,0x0,0x0,0x0,0x0,0x0,
 0x0,0x0,0x0,0x0,0x0,0x0,0x0,0x0,0x0,0x0,0x0,0x0,0x0,0x0,0x0,0x0,0x1212121212121212,0xfafafafafafafafa,0x1111111111111111,
 0xefefefefefefefef,0xd4d4d4d4d4d4d4d4,0x1212121212121212,0xd8d8d8d8d8d8d8d8,0xc3c3c3c3c3c3c3c3,0xe0e0e0e0e0e0e0e,0x404040404040404,
 0xecececececececec,0xfbfbfbfbfbfbfbfb,0xe9e9e9e9e9e9e9e9,0xd0d0d0d0d0d0d0d0,0x404040404040404,0xe0e0e0e0e0e0e0e0,0xc9c9c9c9c9c9c9c9,
 0x707070707070707,0x202020202020202,0xf9f9f9f9f9f9f9f9,0xffffffffffffffff,0x0,0xf0f0f0f0f0f0f0f0,0x1010101010101010,0x404040404040404,
 0xf3f3f3f3f3f3f3f3,0x1c1c1c1c1c1c1c1c,0x0,0x0,0x0,0x0,0x0,0x0,0x0,0x0,0x0,0x0,0x0,0x0,0x0,0x0,0x0,0x0,0x0,0x0,0x0,0x0,0x0,0x0,0x0,0x0,0x0,
 0x0,0x0,0x0,0x0,0x0,0x0,0x0,0x0,0x0,0x0,0x0,0x0,0x0,0x0,0x0,0x0,0x0,0x0,0x0,0x0,0x0,0x0,0x0,0x0,0x0,0x0,0x0,0x0,0x0,0x2d2d2d2d2d2d2d2d,
 0x4242424242424242,0x4545454545454545,0x3030303030303030,0x4848484848484848,0x4848484848484848,0x1b1b1b1b1b1b1b1b,0x2727272727272727,
 0x2727272727272727,0x9696969696969696,0x9393939393939393,0xa9a9a9a9a9a9a9a9,0xa0a0a0a0a0a0a0a0,0x9c9c9c9c9c9c9c9c,0xabababababababab,
 0xb2b2b2b2b2b2b2b2,0xa0a0a0a0a0a0a0a0,0xacacacacacacacac,0x2121212121212121,0x3535353535353535,0x4949494949494949,0x3232323232323232,
 0x4646464646464646,0x5454545454545454,0x3131313131313131,0x3b3b3b3b3b3b3b3b,0x4343434343434343,0x0,0x0,0x0,0x0,0x0,0x0,0x0,0x0,0x0,0x0,0x0,
 0x0,0x0,0x0,0x0,0x0,0x0,0x0,0x0,0x0,0x0,0x0,0x0,0x0,0x0,0x0,0x0,0x0,0x0,0x0,0x0,0x0,0x0,0x0,0x0,0x0,0x0,0x0,0x0,0x0,0x0,0x0,0x0,0x0,0x0,
 0x0,0x0,0x0,0x0,0x0,0x0,0x0,0x0,0x0,0x0,0x0,0x0,0x0,0x0,0x0,0x0,0x0,0x0,0x0,0x0,0x0,0x0,0x0,0x0,0x0,0x0,0x0,0x0,0x0,0x0,0x0,0x0,0x0,0x0,
 0x0,0x0,0x9c9c9c9c9c9c9c9c,0x9898989898989898,0x9191919191919191,0x9090909090909090,0x8e8e8e8e8e8e8e8e,0x8484848484848484,
 0xa6a6a6a6a6a6a6a6,0xb0b0b0b0b0b0b0b0,0xa9a9a9a9a9a9a9a9,0x1313131313131313,0x1212121212121212,0x707070707070707,0x1c1c1c1c1c1c1c1c,
 0x2020202020202020,0x1212121212121212,0x2424242424242424,0x3131313131313131,0x2626262626262626,0x2929292929292929,0x3131313131313131,
 0x3434343434343434,0x4040404040404040,0x4d4d4d4d4d4d4d4d,0x4c4c4c4c4c4c4c4c,0x4646464646464646,0x5757575757575757,0x5151515151515151,
 0x202020202020202,0xf4f4f4f4f4f4f4f4,0xf9f9f9f9f9f9f9f9,0xe0e0e0e0e0e0e0e0,0xcfcfcfcfcfcfcfcf,0xd1d1d1d1d1d1d1d1,0xdbdbdbdbdbdbdbdb,
 0xd4d4d4d4d4d4d4d4,0xcfcfcfcfcfcfcfcf,0x1515151515151515,0x606060606060606,0xa0a0a0a0a0a0a0a,0xfefefefefefefefe,0xeeeeeeeeeeeeeeee,
 0xeeeeeeeeeeeeeeee,0xffffffffffffffff,0xfbfbfbfbfbfbfbfb,0xf2f2f2f2f2f2f2f2,0x1414141414141414,0xa0a0a0a0a0a0a0a,0x1010101010101010,
 0x202020202020202,0xf5f5f5f5f5f5f5f5,0xf7f7f7f7f7f7f7f7,0x505050505050505,0x404040404040404,0xfdfdfdfdfdfdfdfd,0x0,0x0,0x0,0x0,0x0,0x0,0x0,
 0x0,0x0,0x0,0x0,0x0,0x0,0x0,0x0,0x0,0x0,0x0,0x0,0x0,0x0,0x0,0x0,0x0,0x0,0x0,0x0,0x0,0xfbfbfbfbfbfbfbfb,0xf8f8f8f8f8f8f8f8,
 0x202020202020202,0xf8f8f8f8f8f8f8f8,0xf4f4f4f4f4f4f4f4,0x404040404040404,0xfbfbfbfbfbfbfbfb,0xfafafafafafafafa,0x505050505050505,0x0,
 0xfdfdfdfdfdfdfdfd,0xa0a0a0a0a0a0a0a,0xffffffffffffffff,0xfcfcfcfcfcfcfcfc,0xd0d0d0d0d0d0d0d,0x404040404040404,0x303030303030303,
 0x606060606060606,0x505050505050505,0x303030303030303,0xa0a0a0a0a0a0a0a,0x606060606060606,0x404040404040404,0x1212121212121212,
 0xd0d0d0d0d0d0d0d,0xd0d0d0d0d0d0d0d,0xfefefefefefefefe,0xe0e0e0e0e0e0e0e,0xedededededededed,0x808080808080808,0x2e2e2e2e2e2e2e2e,
 0xd0d0d0d0d0d0d0d,0xe9e9e9e9e9e9e9e9,0x808080808080808,0xebebebebebebebeb,0xf0f0f0f0f0f0f0f0,0x202020202020202,0xe1e1e1e1e1e1e1e1,
 0x606060606060606,0x3131313131313131,0xf0f0f0f0f0f0f0f,0xf5f5f5f5f5f5f5f5,0x1b1b1b1b1b1b1b1b,0xfdfdfdfdfdfdfdfd,0xdddddddddddddddd,
 0xf3f3f3f3f3f3f3f3,0xcfcfcfcfcfcfcfcf,0xfefefefefefefefe,0x2b2b2b2b2b2b2b2b,0x707070707070707,0xfdfdfdfdfdfdfdfd,0x2828282828282828,
 0x606060606060606,0x0,0x0,0x0,0x0,0x0,0x0,0x0,0x0,0x0,0x0,0x0,0x0,0x0,0x0,0x0,0x0,0x0,0x0,0x0,0x0,0x0,0x0,0x0,0x0,0x0,0x0,0x0,0x0,0x0,0x0,
 0x0,0x0,0x0,0x0,0x0,0x0,0x0,0x0,0x0,0x0,0x0,0x0,0x0,0x0,0x0,0x0,0x0,0x0,0x0,0x0,0x0,0x0,0x0,0x0,0xf0f0f0f0f0f0f0f0,0x1010101010101010,
 0x2a2a2a2a2a2a2a2a,0xefefefefefefefef,0x4444444444444444,0x6969696969696969,0xfcfcfcfcfcfcfcfc,0x5858585858585858,0x7f7f7f7f7f7f7f7f,
 0xfbfbfbfbfbfbfbfb,0xfdfdfdfdfdfdfdfd,0xa0a0a0a0a0a0a0a,0x606060606060606,0x3939393939393939,0x4e4e4e4e4e4e4e4e,0x1515151515151515,
 0x4949494949494949,0x6363636363636363,0x707070707070707,0xf0f0f0f0f0f0f0f0,0xf4f4f4f4f4f4f4f4,0xf8f8f8f8f8f8f8f8,0x505050505050505,
 0xd0d0d0d0d0d0d0d,0xeeeeeeeeeeeeeeee,0xfdfdfdfdfdfdfdfd,0x606060606060606,0xedededededededed,0x1c1c1c1c1c1c1c1c,0x909090909090909,
 0xd4d4d4d4d4d4d4d4,0x3333333333333333,0x808080808080808,0xcececececececece,0x2828282828282828,0x303030303030303,0xe5e5e5e5e5e5e5e5,
 0x1b1b1b1b1b1b1b1b,0x909090909090909,0xcdcdcdcdcdcdcdcd,0x3d3d3d3d3d3d3d3d,0x505050505050505,0xc5c5c5c5c5c5c5c5,0x2b2b2b2b2b2b2b2b,
 0xfcfcfcfcfcfcfcfc,0x707070707070707,0xf8f8f8f8f8f8f8f8,0x707070707070707,0xeaeaeaeaeaeaeaea,0xb0b0b0b0b0b0b0b,0xfbfbfbfbfbfbfbfb,
 0xf5f5f5f5f5f5f5f5,0xc0c0c0c0c0c0c0c,0xfcfcfcfcfcfcfcfc,0x0,0x0,0x0,0x0,0x0,0x0,0x0,0x0,0x0,0x0,0x0,0x0,0x0,0x0,0x0,0x0,0x0,0x0,0x0,0x0,
 0x0,0x0,0x0,0x0,0x0,0x0,0x0,0xfafafafafafafafa,0x2121212121212121,0xdfdfdfdfdfdfdfdf,0xf8f8f8f8f8f8f8f8,0x3737373737373737,
 0xb9b9b9b9b9b9b9b9,0x202020202020202,0x2424242424242424,0xcfcfcfcfcfcfcfcf,0xfefefefefefefefe,0x2727272727272727,0xe3e3e3e3e3e3e3e3,
 0x707070707070707,0x5454545454545454,0xbdbdbdbdbdbdbdbd,0x1414141414141414,0x3e3e3e3e3e3e3e3e,0xd2d2d2d2d2d2d2d2,0x606060606060606,
 0xc0c0c0c0c0c0c0c,0x505050505050505,0xf7f7f7f7f7f7f7f7,0x1a1a1a1a1a1a1a1a,0xe5e5e5e5e5e5e5e5,0x101010101010101,0x808080808080808,
 0xf9f9f9f9f9f9f9f9,0xd0d0d0d0d0d0d0d,0x101010101010101,0x303030303030303,0x3b3b3b3b3b3b3b3b,0xfcfcfcfcfcfcfcfc,0xdededededededede,
 0x3333333333333333,0xf9f9f9f9f9f9f9f9,0xdcdcdcdcdcdcdcdc,0x1919191919191919,0xf6f6f6f6f6f6f6f6,0xe9e9e9e9e9e9e9e9,0x5b5b5b5b5b5b5b5b,
 0xf2f2f2f2f2f2f2f2,0xb8b8b8b8b8b8b8b8,0x5757575757575757,0xf6f6f6f6f6f6f6f6,0xbbbbbbbbbbbbbbbb,0xf8f8f8f8f8f8f8f8,0xfefefefefefefefe,
 0xf7f7f7f7f7f7f7f7,0xc0c0c0c0c0c0c0c,0x0,0xecececececececec,0xa0a0a0a0a0a0a0a,0x606060606060606,0xf2f2f2f2f2f2f2f2,0xf5f5f5f5f5f5f5f5,
 0x1515151515151515,0x1919191919191919,0x101010101010101,0x2727272727272727,0x2c2c2c2c2c2c2c2c,0xf8f8f8f8f8f8f8f8,0x1919191919191919,
 0x1919191919191919,0xdfdfdfdfdfdfdfdf,0xf6f6f6f6f6f6f6f6,0xfcfcfcfcfcfcfcfc,0xebebebebebebebeb,0x707070707070707,0xc0c0c0c0c0c0c0c,
 0xeaeaeaeaeaeaeaea,0xffffffffffffffff,0xfefefefefefefefe,0xfdfdfdfdfdfdfdfd,0x1818181818181818,0x2020202020202020,0xf6f6f6f6f6f6f6f6,
 0x1717171717171717,0x1f1f1f1f1f1f1f1f,0xf6f6f6f6f6f6f6f6,0x1212121212121212,0x1515151515151515,0xa0a0a0a0a0a0a0a,0xf7f7f7f7f7f7f7f7,
 0x101010101010101,0xffffffffffffffff,0xd3d3d3d3d3d3d3d3,0xd2d2d2d2d2d2d2d2,0x1313131313131313,0xf7f7f7f7f7f7f7f7,0xfdfdfdfdfdfdfdfd,
 0xf8f8f8f8f8f8f8f8,0xe6e6e6e6e6e6e6e6,0xdfdfdfdfdfdfdfdf,0xf1f1f1f1f1f1f1f1,0xc5c5c5c5c5c5c5c5,0xb8b8b8b8b8b8b8b8,0xfbfbfbfbfbfbfbfb,
 0xdddddddddddddddd,0xd6d6d6d6d6d6d6d6,0xfdfdfdfdfdfdfdfd,0xffffffffffffffff,0xfbfbfbfbfbfbfbfb,0x202020202020202,0xf2f2f2f2f2f2f2f2,
 0xe9e9e9e9e9e9e9e9,0x505050505050505,0x202020202020202,0xf9f9f9f9f9f9f9f9,0xe8e8e8e8e8e8e8e8,0xcacacacacacacaca,0xd3d3d3d3d3d3d3d3,
 0xfefefefefefefefe,0xfafafafafafafafa,0xf4f4f4f4f4f4f4f4,0x1515151515151515,0x4747474747474747,0x3b3b3b3b3b3b3b3b,0xe1e1e1e1e1e1e1e1,
 0xa4a4a4a4a4a4a4a4,0xb9b9b9b9b9b9b9b9,0x303030303030303,0xf5f5f5f5f5f5f5f5,0xf1f1f1f1f1f1f1f1,0x2424242424242424,0x6868686868686868,
 0x5151515151515151,0xf9f9f9f9f9f9f9f9,0xf6f6f6f6f6f6f6f6,0xf5f5f5f5f5f5f5f5,0xa0a0a0a0a0a0a0a,0x101010101010101,0xf9f9f9f9f9f9f9f9,
 0x101010101010101,0xa0a0a0a0a0a0a0a,0x909090909090909,0x1616161616161616,0x202020202020202,0xf8f8f8f8f8f8f8f8,0x2323232323232323,
 0x1d1d1d1d1d1d1d1d,0xf1f1f1f1f1f1f1f1,0xebebebebebebebeb,0xd8d8d8d8d8d8d8d8,0xbfbfbfbfbfbfbfbf,0x2c2c2c2c2c2c2c2c,0xc0c0c0c0c0c0c0c,
 0xfdfdfdfdfdfdfdfd,0x3636363636363636,0x2525252525252525,0xfbfbfbfbfbfbfbfb,0xefefefefefefefef,0xd5d5d5d5d5d5d5d5,0xc3c3c3c3c3c3c3c3,
 0x2222222222222222,0xfcfcfcfcfcfcfcfc,0xffffffffffffffff,0x2727272727272727,0x1818181818181818,0x0,0x0,0xf4f4f4f4f4f4f4f4,
 0xeaeaeaeaeaeaeaea,0xf8f8f8f8f8f8f8f8,0xc1c1c1c1c1c1c1c1,0xd3d3d3d3d3d3d3d3,0xc0c0c0c0c0c0c0c,0x3838383838383838,0x3131313131313131,
 0xf7f7f7f7f7f7f7f7,0x3535353535353535,0x1515151515151515,0xe9e9e9e9e9e9e9e9,0x9494949494949494,0xb1b1b1b1b1b1b1b1,0x303030303030303,
 0x4848484848484848,0x3535353535353535,0xdddddddddddddddd,0x4747474747474747,0x1616161616161616,0x1e1e1e1e1e1e1e1e,0xd9d9d9d9d9d9d9d9,
 0xfcfcfcfcfcfcfcfc,0xfbfbfbfbfbfbfbfb,0x0,0x303030303030303,0xffffffffffffffff,0x1a1a1a1a1a1a1a1a,0x404040404040404,0x1b1b1b1b1b1b1b1b,
 0xe0e0e0e0e0e0e0e,0x1010101010101010,0xfefefefefefefefe,0xeeeeeeeeeeeeeeee,0xe6e6e6e6e6e6e6e6,0x0,0xfdfdfdfdfdfdfdfd,0xf2f2f2f2f2f2f2f2,
 0xecececececececec,0xdfdfdfdfdfdfdfdf,0xe6e6e6e6e6e6e6e6,0xdadadadadadadada,0xcbcbcbcbcbcbcbcb,0xc9c9c9c9c9c9c9c9,0xf0f0f0f0f0f0f0f0,
 0xf2f2f2f2f2f2f2f2,0xedededededededed,0x101010101010101,0xffffffffffffffff,0x303030303030303,0x909090909090909,0x404040404040404,
 0xfefefefefefefefe,0x1616161616161616,0x1d1d1d1d1d1d1d1d,0x1111111111111111,0xb0b0b0b0b0b0b0b,0x1313131313131313,0xe0e0e0e0e0e0e0e,
 0xfbfbfbfbfbfbfbfb,0xffffffffffffffff,0xfefefefefefefefe,0xe7e7e7e7e7e7e7e7,0xeaeaeaeaeaeaeaea,0xebebebebebebebeb,0x1010101010101010,
 0x1a1a1a1a1a1a1a1a,0x1616161616161616,0x303030303030303,0xa0a0a0a0a0a0a0a,0xa0a0a0a0a0a0a0a,0xf4f4f4f4f4f4f4f4,0xf9f9f9f9f9f9f9f9,
 0xfbfbfbfbfbfbfbfb,0x505050505050505,0xe0e0e0e0e0e0e0e,0xc0c0c0c0c0c0c0c,0x101010101010101,0xa0a0a0a0a0a0a0a,0xb0b0b0b0b0b0b0b,
 0xf9f9f9f9f9f9f9f9,0x0,0x303030303030303,0x0,0x0,0x0,0x0,0x0,0x0,0x0,0x0,0x0,0x0,0x0,0x0,0x0,0x0,0x0,0x0,0x0,0x0,0x0,0x0,0x0,0x0,0x0,0x0,
 0x0,0x0,0x0,0x2828282828282828,0x2828282828282828,0x2828282828282828,0xfefefefefefefefe,0xfafafafafafafafa,0xfcfcfcfcfcfcfcfc,
 0xfefefefefefefefe,0xf9f9f9f9f9f9f9f9,0xfbfbfbfbfbfbfbfb,0xc0c0c0c0c0c0c0c,0x505050505050505,0xa0a0a0a0a0a0a0a,0xecececececececec,
 0xe1e1e1e1e1e1e1e1,0xe8e8e8e8e8e8e8e8,0xf4f4f4f4f4f4f4f4,0xe7e7e7e7e7e7e7e7,0xefefefefefefefef,0xf4f4f4f4f4f4f4f4,0xe6e6e6e6e6e6e6e6,
 0xe8e8e8e8e8e8e8e8,0xd9d9d9d9d9d9d9d9,0xc7c7c7c7c7c7c7c7,0xcececececececece,0xd4d4d4d4d4d4d4d4,0xc2c2c2c2c2c2c2c2,0xcbcbcbcbcbcbcbcb,
 0x3636363636363636,0x3939393939393939,0x2929292929292929,0x3838383838383838,0x3535353535353535,0x2121212121212121,0x4040404040404040,
 0x4747474747474747,0x3232323232323232,0xc2c2c2c2c2c2c2c2,0xc1c1c1c1c1c1c1c1,0xc1c1c1c1c1c1c1c1,0xb9b9b9b9b9b9b9b9,0xb4b4b4b4b4b4b4b4,
 0xb1b1b1b1b1b1b1b1,0xbdbdbdbdbdbdbdbd,0xc5c5c5c5c5c5c5c5,0xc4c4c4c4c4c4c4c4,0xf3f3f3f3f3f3f3f3,0xf8f8f8f8f8f8f8f8,0xeaeaeaeaeaeaeaea,
 0xffffffffffffffff,0x303030303030303,0xf4f4f4f4f4f4f4f4,0xebebebebebebebeb,0xfafafafafafafafa,0xebebebebebebebeb,0xf5f5f5f5f5f5f5f5,
 0xdcdcdcdcdcdcdcdc,0x404040404040404,0xeaeaeaeaeaeaeaea,0xbdbdbdbdbdbdbdbd,0xeaeaeaeaeaeaeaea,0x1a1a1a1a1a1a1a1a,0x505050505050505,
 0x1f1f1f1f1f1f1f1f,0x1414141414141414,0xf4f4f4f4f4f4f4f4,0x1c1c1c1c1c1c1c1c,0xf1f1f1f1f1f1f1f1,0xb8b8b8b8b8b8b8b8,0xebebebebebebebeb,
 0x1717171717171717,0xfcfcfcfcfcfcfcfc,0x1a1a1a1a1a1a1a1a,0xb0b0b0b0b0b0b0b,0xfafafafafafafafa,0x2020202020202020,0xf7f7f7f7f7f7f7f7,
 0xd0d0d0d0d0d0d0d0,0xfdfdfdfdfdfdfdfd,0x202020202020202,0xeeeeeeeeeeeeeeee,0xb0b0b0b0b0b0b0b,0x101010101010101,0x404040404040404,
 0x606060606060606,0x707070707070707,0x9d9d9d9d9d9d9d9d,0x303030303030303,0xfafafafafafafafa,0x5656565656565656,0xfbfbfbfbfbfbfbfb,0x0,0x0,
 0x0,0x0,0x0,0x0,0x0,0x0,0x0,0xf4f4f4f4f4f4f4f4,0xa0a0a0a0a0a0a0a,0x808080808080808,0x2222222222222222,0xc2c2c2c2c2c2c2c2,
 0xebebebebebebebeb,0x202020202020202,0xefefefefefefefef,0x404040404040404,0x0,0x0,0x0,0x0,0x0,0x0,0x0,0x0,0x0,0x0,0x0,0x0,0x0,0x0,0x0,0x0,
 0x0,0x0,0xdfdfdfdfdfdfdfdf,0xdddddddddddddddd,0xe3e3e3e3e3e3e3e3,0x1818181818181818,0x2020202020202020,0xe0e0e0e0e0e0e0e,
 0x3131313131313131,0x4e4e4e4e4e4e4e4e,0x2525252525252525,0x0,0x0,0x0,0x0,0x0,0x0,0x0,0x0,0x0,0x0,0x0,0x0,0x0,0x0,0x0,0x0,0x0,0x0,0x0,0x0,
 0x0,0x0,0x0,0x0,0x0,0x0,0x0,0xc8c8c8c8c8c8c8c8,0xdcdcdcdcdcdcdcdc,0xc3c3c3c3c3c3c3c3,0x303030303030303,0x2929292929292929,
 0x303030303030303,0x3636363636363636,0x6b6b6b6b6b6b6b6b,0x2e2e2e2e2e2e2e2e,0xf9f9f9f9f9f9f9f9,0x707070707070707,0xfbfbfbfbfbfbfbfb,
 0x404040404040404,0xf8f8f8f8f8f8f8f8,0xfdfdfdfdfdfdfdfd,0xfafafafafafafafa,0xe1e1e1e1e1e1e1e1,0xebebebebebebebeb,0x0,0x0,0x0,0x0,0x0,0x0,
 0x0,0x0,0x0,0x202020202020202,0x505050505050505,0xa0a0a0a0a0a0a0a,0xfafafafafafafafa,0xf5f5f5f5f5f5f5f5,0xf9f9f9f9f9f9f9f9,
 0xfbfbfbfbfbfbfbfb,0xf8f8f8f8f8f8f8f8,0xf4f4f4f4f4f4f4f4,0xa0a0a0a0a0a0a0a,0x202020202020202,0x1515151515151515,0xf6f6f6f6f6f6f6f6,
 0xd5d5d5d5d5d5d5d5,0xfdfdfdfdfdfdfdfd,0x1212121212121212,0xedededededededed,0x303030303030303,0x0,0x0,0x0,0x0,0x0,0x0,0x0,0x0,0x0,0x0,0x0,
 0x0,0x0,0x0,0x0,0x0,0x0,0x0,0x0,0xf0f0f0f0f0f0f0f,0xf6f6f6f6f6f6f6f6,0x707070707070707,0x7f7f7f7f7f7f7f7f,0x1212121212121212,
 0xedededededededed,0x3939393939393939,0xf0f0f0f0f0f0f0f0,0xeeeeeeeeeeeeeeee,0x0,0xffffffffffffffff,0x1c1c1c1c1c1c1c1c,0xcbcbcbcbcbcbcbcb,
 0x3b3b3b3b3b3b3b3b,0xf4f4f4f4f4f4f4f4,0xeaeaeaeaeaeaeaea,0x1c1c1c1c1c1c1c1c,0x0,0x0,0x0,0x0,0x0,0x0,0x0,0x0,0x0,0xfcfcfcfcfcfcfcfc,
 0x1212121212121212,0xf2f2f2f2f2f2f2f2,0x303030303030303,0xb1b1b1b1b1b1b1b1,0x4444444444444444,0xfcfcfcfcfcfcfcfc,0xf6f6f6f6f6f6f6f6,
 0x707070707070707,0x0,0xf5f5f5f5f5f5f5f5,0x606060606060606,0x202020202020202,0x5252525252525252,0xb3b3b3b3b3b3b3b3,0x101010101010101,
 0xe0e0e0e0e0e0e0e,0xf7f7f7f7f7f7f7f7,0xfafafafafafafafa,0x505050505050505,0xf4f4f4f4f4f4f4f4,0x707070707070707,0xf9f9f9f9f9f9f9f9,
 0xe0e0e0e0e0e0e0e,0xedededededededed,0xc9c9c9c9c9c9c9c9,0xf7f7f7f7f7f7f7f7,0x101010101010101,0xf2f2f2f2f2f2f2f2,0x202020202020202,
 0xf8f8f8f8f8f8f8f8,0x5c5c5c5c5c5c5c5c,0xfcfcfcfcfcfcfcfc,0xf6f6f6f6f6f6f6f6,0x1212121212121212,0xf2f2f2f2f2f2f2f2,0xa0a0a0a0a0a0a0a,
 0xe3e3e3e3e3e3e3e3,0x505050505050505,0xf8f8f8f8f8f8f8f8,0xc8c8c8c8c8c8c8c8,0xefefefefefefefef,0xfafafafafafafafa,0x6464646464646464,0x0,
 0xfcfcfcfcfcfcfcfc,0xeeeeeeeeeeeeeeee,0xf3f3f3f3f3f3f3f3,0x808080808080808,0x1d1d1d1d1d1d1d1d,0x2828282828282828,0xf1f1f1f1f1f1f1f1,
 0x2121212121212121,0xfefefefefefefefe,0x0,0x909090909090909,0x101010101010101,0xf4f4f4f4f4f4f4f4,0x5353535353535353,0xfafafafafafafafa,
 0xfcfcfcfcfcfcfcfc,0xaeaeaeaeaeaeaeae,0xffffffffffffffff,0x303030303030303,0x1b1b1b1b1b1b1b1b,0xf0f0f0f0f0f0f0f,0xf6f6f6f6f6f6f6f6,
 0xf3f3f3f3f3f3f3f3,0xfafafafafafafafa,0xf0f0f0f0f0f0f0f0,0xd6d6d6d6d6d6d6d6,0xe2e2e2e2e2e2e2e2,0xf7f7f7f7f7f7f7f7,0xf5f5f5f5f5f5f5f5,
 0xf2f2f2f2f2f2f2f2,0xfafafafafafafafa,0xfefefefefefefefe,0xfdfdfdfdfdfdfdfd,0xffffffffffffffff,0xfcfcfcfcfcfcfcfc,0xf9f9f9f9f9f9f9f9,0x0,
 0x0,0x0,0x0,0x0,0x0,0x0,0x0,0x0,0xa0a0a0a0a0a0a0a,0x1313131313131313,0xa0a0a0a0a0a0a0a,0xe9e9e9e9e9e9e9e9,0xf1f1f1f1f1f1f1f1,
 0xe9e9e9e9e9e9e9e9,0xf2f2f2f2f2f2f2f2,0xedededededededed,0xf6f6f6f6f6f6f6f6,0x2424242424242424,0x2121212121212121,0x2121212121212121,
 0xf5f5f5f5f5f5f5f5,0xcccccccccccccccc,0xe9e9e9e9e9e9e9e9,0xe9e9e9e9e9e9e9e9,0xafafafafafafafaf,0xe4e4e4e4e4e4e4e4,0xf9f9f9f9f9f9f9f9,
 0x1919191919191919,0x707070707070707,0xeeeeeeeeeeeeeeee,0x5353535353535353,0x101010101010101,0xe6e6e6e6e6e6e6e6,0xe2e2e2e2e2e2e2e2,
 0xe4e4e4e4e4e4e4e4,0xf5f5f5f5f5f5f5f5,0xffffffffffffffff,0x202020202020202,0xffffffffffffffff,0xf9f9f9f9f9f9f9f9,0xfbfbfbfbfbfbfbfb,
 0xe4e4e4e4e4e4e4e4,0xe9e9e9e9e9e9e9e9,0xf5f5f5f5f5f5f5f5,0xf9f9f9f9f9f9f9f9,0xe8e8e8e8e8e8e8e8,0x2626262626262626,0x909090909090909,
 0xf4f4f4f4f4f4f4f4,0xa0a0a0a0a0a0a0a,0xf2f2f2f2f2f2f2f2,0xfefefefefefefefe,0x808080808080808,0xf0f0f0f0f0f0f0f,0x0,0x1010101010101010,
 0x1616161616161616,0x2626262626262626,0x2b2b2b2b2b2b2b2b,0x1616161616161616,0xa0a0a0a0a0a0a0a,0x202020202020202,0x101010101010101,
 0xb0b0b0b0b0b0b0b,0x101010101010101,0x1010101010101010,0x1111111111111111,0xffffffffffffffff,0x6363636363636363,0xe7e7e7e7e7e7e7e7,
 0x1212121212121212,0xfefefefefefefefe,0xf6f6f6f6f6f6f6f6,0xf9f9f9f9f9f9f9f9,0xffffffffffffffff,0x101010101010101,0xfefefefefefefefe,
 0x101010101010101,0x606060606060606,0xf5f5f5f5f5f5f5f5,0x0,0x2e2e2e2e2e2e2e2e,0x2525252525252525,0x0,0xf9f9f9f9f9f9f9f9,0x9c9c9c9c9c9c9c9c,
 0xfefefefefefefefe,0x606060606060606,0x808080808080808,0xa0a0a0a0a0a0a0a,0x1414141414141414,0xf0f0f0f0f0f0f0f,0xf3f3f3f3f3f3f3f3,
 0xb0b0b0b0b0b0b0b,0x101010101010101,0xf6f6f6f6f6f6f6f6,0x1e1e1e1e1e1e1e1e,0x4646464646464646,0xf0f0f0f0f0f0f0f,0xe1e1e1e1e1e1e1e1,
 0xeaeaeaeaeaeaeaea,0xe0e0e0e0e0e0e0e0,0x1d1d1d1d1d1d1d1d,0xf6f6f6f6f6f6f6f6,0x606060606060606,0xeeeeeeeeeeeeeeee,0xe0e0e0e0e0e0e0e,
 0xfbfbfbfbfbfbfbfb,0x303030303030303,0x909090909090909,0xfafafafafafafafa,0xf1f1f1f1f1f1f1f1,0xffffffffffffffff,0xe4e4e4e4e4e4e4e4,
 0xfefefefefefefefe,0xcacacacacacacaca,0x1d1d1d1d1d1d1d1d,0xeeeeeeeeeeeeeeee,0xb0b0b0b0b0b0b0b,0x0,0xe4e4e4e4e4e4e4e4,0xf7f7f7f7f7f7f7f7,
 0xe4e4e4e4e4e4e4e4,0x2121212121212121,0xb0b0b0b0b0b0b0b,0x1111111111111111,0xf9f9f9f9f9f9f9f9,0xd7d7d7d7d7d7d7d7,0x202020202020202,
 0xf7f7f7f7f7f7f7f7,0x1a1a1a1a1a1a1a1a,0xfefefefefefefefe,0xfefefefefefefefe,0xefefefefefefefef,0x505050505050505,0x505050505050505,
 0xf5f5f5f5f5f5f5f5,0xedededededededed,0x1515151515151515,0x606060606060606,0x707070707070707,0x707070707070707,0x404040404040404,
 0xf4f4f4f4f4f4f4f4,0x707070707070707,0xe0e0e0e0e0e0e0e,0xa0a0a0a0a0a0a0a,0xfefefefefefefefe,0xfdfdfdfdfdfdfdfd,0xfafafafafafafafa,
 0xf9f9f9f9f9f9f9f9,0x1010101010101010,0x1212121212121212,0xeaeaeaeaeaeaeaea,0x202020202020202,0x1f1f1f1f1f1f1f1f,0xc9c9c9c9c9c9c9c9,
 0xf6f6f6f6f6f6f6f6,0x1515151515151515,0xf8f8f8f8f8f8f8f8,0x202020202020202,0x909090909090909,0x303030303030303,0x0,0x5a5a5a5a5a5a5a5a,
 0x2323232323232323,0xf5f5f5f5f5f5f5f5,0x1f1f1f1f1f1f1f1f,0x1717171717171717,0xdcdcdcdcdcdcdcdc,0xf7f7f7f7f7f7f7f7,0x202020202020202,
 0xf7f7f7f7f7f7f7f7,0xe6e6e6e6e6e6e6e6,0xf2f2f2f2f2f2f2f2,0xe1e1e1e1e1e1e1e1,0xe0e0e0e0e0e0e0e0,0x2e2e2e2e2e2e2e2e,0x505050505050505,
 0xffffffffffffffff,0x707070707070707,0x505050505050505,0x707070707070707,0xf8f8f8f8f8f8f8f8,0x3838383838383838,0xfefefefefefefefe,
 0x303030303030303,0xf4f4f4f4f4f4f4f4,0xfbfbfbfbfbfbfbfb,0x1616161616161616,0x707070707070707,0xf8f8f8f8f8f8f8f8,0xeeeeeeeeeeeeeeee,
 0x1616161616161616,0xf9f9f9f9f9f9f9f9,0x1818181818181818,0xefefefefefefefef,0x0,0x404040404040404,0xf2f2f2f2f2f2f2f2,0xf9f9f9f9f9f9f9f9,
 0xfcfcfcfcfcfcfcfc,0xf9f9f9f9f9f9f9f9,0xf7f7f7f7f7f7f7f7,0xf5f5f5f5f5f5f5f5,0x1717171717171717,0x1010101010101010,0xa7a7a7a7a7a7a7a7,
 0xfdfdfdfdfdfdfdfd,0xa0a0a0a0a0a0a0a,0x1818181818181818,0xd0d0d0d0d0d0d0d,0x1010101010101010,0xf7f7f7f7f7f7f7f7,0x1717171717171717,
 0xc0c0c0c0c0c0c0c,0xe0e0e0e0e0e0e0e,0x6767676767676767,0x1313131313131313,0xf4f4f4f4f4f4f4f4,0xf9f9f9f9f9f9f9f9,0xfefefefefefefefe,
 0xf7f7f7f7f7f7f7f7,0x202020202020202,0x1818181818181818,0x1919191919191919,0x909090909090909,0xfcfcfcfcfcfcfcfc,0xdededededededede,
 0x303030303030303,0xe4e4e4e4e4e4e4e4,0xfdfdfdfdfdfdfdfd,0xffffffffffffffff,0x8080808080808080,0xf3f3f3f3f3f3f3f3,0x404040404040404,
 0x2525252525252525,0x1f1f1f1f1f1f1f1f,0xfbfbfbfbfbfbfbfb,0x202020202020202,0xf9f9f9f9f9f9f9f9,0x0,0xf6f6f6f6f6f6f6f6,0xb0b0b0b0b0b0b0b,
 0xf3f3f3f3f3f3f3f3,0xf9f9f9f9f9f9f9f9,0x3e3e3e3e3e3e3e3e,0x0,0x303030303030303,0x606060606060606,0x1818181818181818,0x404040404040404,
 0x505050505050505,0xfdfdfdfdfdfdfdfd,0xffffffffffffffff,0xfefefefefefefefe,0x0,0x606060606060606,0xf0f0f0f0f0f0f0f,0x202020202020202,
 0x606060606060606,0x2424242424242424,0x5252525252525252,0xfafafafafafafafa,0x707070707070707,0x202020202020202,0xf6f6f6f6f6f6f6f6,
 0x505050505050505,0xf8f8f8f8f8f8f8f8,0xd0d0d0d0d0d0d0d,0xfbfbfbfbfbfbfbfb,0x1515151515151515,0x1616161616161616,0xf0f0f0f0f0f0f0f,
 0x404040404040404,0x1c1c1c1c1c1c1c1c,0x909090909090909,0x606060606060606,0xf3f3f3f3f3f3f3f3,0x1c1c1c1c1c1c1c1c,0x0,0x606060606060606,
 0xf1f1f1f1f1f1f1f1,0x909090909090909,0x1414141414141414,0xf3f3f3f3f3f3f3f3,0xf6f6f6f6f6f6f6f6,0xc0c0c0c0c0c0c0c,0xeeeeeeeeeeeeeeee,
 0x202020202020202,0x0,0xd8d8d8d8d8d8d8d8,0xf9f9f9f9f9f9f9f9,0xffffffffffffffff,0xedededededededed,0xf0f0f0f0f0f0f0f,0x202020202020202,
 0x606060606060606,0x707070707070707,0x404040404040404,0xe9e9e9e9e9e9e9e9,0xedededededededed,0x2222222222222222,0x2e2e2e2e2e2e2e2e,
 0xd0d0d0d0d0d0d0d,0xfdfdfdfdfdfdfdfd,0xf0f0f0f0f0f0f0f0,0x606060606060606,0x101010101010101,0x505050505050505,0xfcfcfcfcfcfcfcfc,
 0xc0c0c0c0c0c0c0c,0xf7f7f7f7f7f7f7f7,0xfbfbfbfbfbfbfbfb,0xfefefefefefefefe,0xfefefefefefefefe,0xc8c8c8c8c8c8c8c8,0xf0f0f0f0f0f0f0f0,
 0x1313131313131313,0xfbfbfbfbfbfbfbfb,0x505050505050505,0xfefefefefefefefe,0xf8f8f8f8f8f8f8f8,0xffffffffffffffff,0xf0f0f0f0f0f0f0f0,
 0x606060606060606,0xfefefefefefefefe,0x707070707070707,0x808080808080808,0x606060606060606,0x1a1a1a1a1a1a1a1a,0x3838383838383838,
 0xfefefefefefefefe,0x202020202020202,0xfefefefefefefefe,0xedededededededed,0x808080808080808,0x606060606060606,0x404040404040404,
 0x303030303030303,0xfafafafafafafafa,0xf9f9f9f9f9f9f9f9,0x1616161616161616,0x0,0x1515151515151515,0xd1d1d1d1d1d1d1d1,0xf6f6f6f6f6f6f6f6,
 0xfefefefefefefefe,0x202020202020202,0xfdfdfdfdfdfdfdfd,0x606060606060606,0xf0f0f0f0f0f0f0f,0x101010101010101,0x808080808080808,
 0xdadadadadadadada,0x0,0xf5f5f5f5f5f5f5f5,0xe4e4e4e4e4e4e4e4,0xe7e7e7e7e7e7e7e7,0xf3f3f3f3f3f3f3f3,0xabababababababab,0xf0f0f0f0f0f0f0f0,
 0xd0d0d0d0d0d0d0d,0x1919191919191919,0xfdfdfdfdfdfdfdfd,0xc0c0c0c0c0c0c0c,0x1313131313131313,0x0,0xf4f4f4f4f4f4f4f4,0x404040404040404,
 0x1212121212121212,0xc0c0c0c0c0c0c0c,0x202020202020202,0xf9f9f9f9f9f9f9f9,0xb0b0b0b0b0b0b0b,0xe8e8e8e8e8e8e8e8,0xf5f5f5f5f5f5f5f5,
 0x505050505050505,0xf2f2f2f2f2f2f2f2,0xd0d0d0d0d0d0d0d,0x909090909090909,0xe3e3e3e3e3e3e3e3,0xeeeeeeeeeeeeeeee,0x1010101010101010,
 0xa0a0a0a0a0a0a0a,0x1111111111111111,0x1b1b1b1b1b1b1b1b,0x1212121212121212,0x303030303030303,0x707070707070707,0xfefefefefefefefe,
 0xf3f3f3f3f3f3f3f3,0xf7f7f7f7f7f7f7f7,0x202020202020202,0x303030303030303,0x1414141414141414,0xfcfcfcfcfcfcfcfc,0xd4d4d4d4d4d4d4d4,
 0xdededededededede,0x1a1a1a1a1a1a1a1a,0xc0c0c0c0c0c0c0c,0x707070707070707,0x1313131313131313,0xfefefefefefefefe,0xe0e0e0e0e0e0e0e,
 0x909090909090909,0xf2f2f2f2f2f2f2f2,0x1414141414141414,0xcccccccccccccccc,0x707070707070707,0x505050505050505,0x808080808080808,
 0xf5f5f5f5f5f5f5f5,0xf5f5f5f5f5f5f5f5,0xf0f0f0f0f0f0f0f,0x2929292929292929,0xe7e7e7e7e7e7e7e7,0xfdfdfdfdfdfdfdfd,0x1717171717171717,
 0xd0d0d0d0d0d0d0d,0xd6d6d6d6d6d6d6d6,0x5a5a5a5a5a5a5a5a,0xf0f0f0f0f0f0f0f,0x404040404040404,0xfcfcfcfcfcfcfcfc,0xfdfdfdfdfdfdfdfd,
 0x1212121212121212,0xfdfdfdfdfdfdfdfd,0xf5f5f5f5f5f5f5f5,0x505050505050505,0x1010101010101010,0x2424242424242424,0xb0b0b0b0b0b0b0b,
 0x1313131313131313,0x2b2b2b2b2b2b2b2b,0xfbfbfbfbfbfbfbfb,0xf7f7f7f7f7f7f7f7,0xfefefefefefefefe,0x404040404040404,0xf9f9f9f9f9f9f9f9,
 0x707070707070707,0xc9c9c9c9c9c9c9c9,0x2222222222222222,0xf5f5f5f5f5f5f5f5,0x303030303030303,0xf6f6f6f6f6f6f6f6,0xf9f9f9f9f9f9f9f9,
 0xfcfcfcfcfcfcfcfc,0x0,0x101010101010101,0xf0f0f0f0f0f0f0f0,0x808080808080808,0xc0c0c0c0c0c0c0c,0xf1f1f1f1f1f1f1f1,0xe0e0e0e0e0e0e0e,
 0xf4f4f4f4f4f4f4f4,0xe7e7e7e7e7e7e7e7,0x505050505050505,0xf8f8f8f8f8f8f8f8,0x101010101010101,0xbabababababababa,0x606060606060606,
 0x101010101010101,0xf0f0f0f0f0f0f0f,0x0,0x1919191919191919,0x808080808080808,0x2626262626262626,0x0,0xfefefefefefefefe,0x101010101010101,
 0x505050505050505,0xf7f7f7f7f7f7f7f7,0xfdfdfdfdfdfdfdfd,0xf9f9f9f9f9f9f9f9,0xe6e6e6e6e6e6e6e6,0xffffffffffffffff,0x505050505050505,
 0xfefefefefefefefe,0xf5f5f5f5f5f5f5f5,0xfbfbfbfbfbfbfbfb,0x202020202020202,0xf0f0f0f0f0f0f0f,0xbabababababababa,0x101010101010101,
 0x404040404040404,0xf4f4f4f4f4f4f4f4,0xfdfdfdfdfdfdfdfd,0x707070707070707,0xfafafafafafafafa,0xfafafafafafafafa,0x2121212121212121,
 0x707070707070707,0x1212121212121212,0xa0a0a0a0a0a0a0a,0xc0c0c0c0c0c0c0c,0xf4f4f4f4f4f4f4f4,0x0,0xdededededededede,0xfdfdfdfdfdfdfdfd,
 0xe9e9e9e9e9e9e9e9,0xc0c0c0c0c0c0c0c,0xf3f3f3f3f3f3f3f3,0xe0e0e0e0e0e0e0e,0xcdcdcdcdcdcdcdcd,0xfbfbfbfbfbfbfbfb,0xd0d0d0d0d0d0d0d,
 0xffffffffffffffff,0x909090909090909,0xf7f7f7f7f7f7f7f7,0x0,0xecececececececec,0xf6f6f6f6f6f6f6f6,0x202020202020202,0x202020202020202,
 0xffffffffffffffff,0xfafafafafafafafa,0xf8f8f8f8f8f8f8f8,0xfefefefefefefefe,0xa0a0a0a0a0a0a0a,0xfefefefefefefefe,0xdcdcdcdcdcdcdcdc,
 0xeeeeeeeeeeeeeeee,0xe1e1e1e1e1e1e1e1,0x0,0xf0f0f0f0f0f0f0f0,0x404040404040404,0x909090909090909,0xf8f8f8f8f8f8f8f8,0x303030303030303,
 0xe7e7e7e7e7e7e7e7,0x0,0x0,0x0,0x0,0x0,0x0,0x0,0x0,0x0,0x0,0x0,0x0,0x0,0x0,0x0,0x0,0x202020202020202,0x0,0xfefefefefefefefe,
 0xfdfdfdfdfdfdfdfd,0xeaeaeaeaeaeaeaea,0x1717171717171717,0x0,0x1414141414141414,0xecececececececec,0xfefefefefefefefe,0x707070707070707,
 0x202020202020202,0x101010101010101,0xefefefefefefefef,0xfcfcfcfcfcfcfcfc,0x303030303030303,0xfcfcfcfcfcfcfcfc,0xf5f5f5f5f5f5f5f5,
 0xf6f6f6f6f6f6f6f6,0xb0b0b0b0b0b0b0b,0xd0d0d0d0d0d0d0d,0xfafafafafafafafa,0xa0a0a0a0a0a0a0a,0x606060606060606,0xf4f4f4f4f4f4f4f4,
 0xc0c0c0c0c0c0c0c,0xb0b0b0b0b0b0b0b,0xf8f8f8f8f8f8f8f8,0xfefefefefefefefe,0xfcfcfcfcfcfcfcfc,0xfdfdfdfdfdfdfdfd,0x1212121212121212,
 0x1919191919191919,0xefefefefefefefef,0x606060606060606,0xe0e0e0e0e0e0e0e,0x505050505050505,0xfefefefefefefefe,0x303030303030303,
 0x404040404040404,0xf1f1f1f1f1f1f1f1,0xfbfbfbfbfbfbfbfb,0x707070707070707,0xf5f5f5f5f5f5f5f5,0xfefefefefefefefe,0xffffffffffffffff,
 0xfafafafafafafafa,0xfdfdfdfdfdfdfdfd,0x101010101010101,0x808080808080808,0xe0e0e0e0e0e0e0e,0xfbfbfbfbfbfbfbfb,0x707070707070707,
 0xf0f0f0f0f0f0f0f,0x606060606060606,0xf1f1f1f1f1f1f1f1,0xd0d0d0d0d0d0d0d,0x101010101010101,0xf5f5f5f5f5f5f5f5,0x101010101010101,
 0xfafafafafafafafa,0x1717171717171717,0xf2f2f2f2f2f2f2f2,0x0,0x101010101010101,0xffffffffffffffff,0xfafafafafafafafa,0x808080808080808,
 0x101010101010101,0x101010101010101,0xc0c0c0c0c0c0c0c,0x0,0xfdfdfdfdfdfdfdfd,0x0,0x0,0xfafafafafafafafa,0xb0b0b0b0b0b0b0b,
 0x1313131313131313,0xf4f4f4f4f4f4f4f4,0x606060606060606,0xd0d0d0d0d0d0d0d,0x101010101010101,0x303030303030303,0x0,0x0,0xa0a0a0a0a0a0a0a,
 0x808080808080808,0x101010101010101,0xd0d0d0d0d0d0d0d,0x505050505050505,0xfefefefefefefefe,0xf0f0f0f0f0f0f0f0,0xf9f9f9f9f9f9f9f9,0x0,
 0x1010101010101010,0xf0f0f0f0f0f0f0f,0x0,0x707070707070707,0x303030303030303,0xdadadadadadadada,0xffffffffffffffff,0x2727272727272727,
 0xbbbbbbbbbbbbbbbb,0xfbfbfbfbfbfbfbfb,0x4d4d4d4d4d4d4d4d,0xd0d0d0d0d0d0d0d0,0xf9f9f9f9f9f9f9f9,0x3535353535353535,0xcccccccccccccccc,
 0x8383838383838383,0xbdbdbdbdbdbdbdbd,0x101010101010101,0xfafafafafafafafa,0xffffffffffffffff,0x3636363636363636,0x7f7f7f7f7f7f7f7f,
 0x4242424242424242,0xf8f8f8f8f8f8f8f8,0x202020202020202,0xf9f9f9f9f9f9f9f9,0xfcfcfcfcfcfcfcfc,0x808080808080808,0x505050505050505,0x0,
 0xc0c0c0c0c0c0c0c,0xc0c0c0c0c0c0c0c,0xb0b0b0b0b0b0b0b,0x202020202020202,0xfbfbfbfbfbfbfbfb,0x404040404040404,0xf2f2f2f2f2f2f2f2,
 0xe3e3e3e3e3e3e3e3,0xd0d0d0d0d0d0d0d,0xffffffffffffffff,0xf7f7f7f7f7f7f7f7,0xfbfbfbfbfbfbfbfb,0xf9f9f9f9f9f9f9f9,0xf8f8f8f8f8f8f8f8,
 0x505050505050505,0x101010101010101,0x202020202020202,0xfdfdfdfdfdfdfdfd,0xfafafafafafafafa,0xffffffffffffffff,0x0,0x0,0x0,
 0xfdfdfdfdfdfdfdfd,0xe4e4e4e4e4e4e4e4,0xf7f7f7f7f7f7f7f7,0x404040404040404,0x1212121212121212,0x909090909090909,0xfcfcfcfcfcfcfcfc,
 0x101010101010101,0x404040404040404,0xf5f5f5f5f5f5f5f5,0xe6e6e6e6e6e6e6e6,0x2828282828282828,0x505050505050505,0xfbfbfbfbfbfbfbfb,
 0xffffffffffffffff,0xfefefefefefefefe,0x101010101010101,0xfdfdfdfdfdfdfdfd,0x101010101010101,0x909090909090909,0xf8f8f8f8f8f8f8f8,0x0,
 0x1414141414141414,0xf2f2f2f2f2f2f2f2,0x101010101010101,0x0,0xfdfdfdfdfdfdfdfd,0x1212121212121212,0xf4f4f4f4f4f4f4f4,0xfdfdfdfdfdfdfdfd,
 0x404040404040404,0xfefefefefefefefe,0xf6f6f6f6f6f6f6f6,0xc0c0c0c0c0c0c0c,0x1010101010101010,0xe0e0e0e0e0e0e0e,0x303030303030303,
 0xf0f0f0f0f0f0f0f0,0xf4f4f4f4f4f4f4f4,0xfbfbfbfbfbfbfbfb,0xdfdfdfdfdfdfdfdf,0xe5e5e5e5e5e5e5e5,0xc0c0c0c0c0c0c0c,0xa0a0a0a0a0a0a0a,
 0xebebebebebebebeb,0x0,0xf7f7f7f7f7f7f7f7,0x808080808080808,0xebebebebebebebeb,0xefefefefefefefef,0x2525252525252525,0x303030303030303,
 0xfcfcfcfcfcfcfcfc,0x202020202020202,0xffffffffffffffff,0x1818181818181818,0x505050505050505,0xfefefefefefefefe,0xedededededededed,
 0xfcfcfcfcfcfcfcfc,0xfcfcfcfcfcfcfcfc,0xfcfcfcfcfcfcfcfc,0xf7f7f7f7f7f7f7f7,0xf9f9f9f9f9f9f9f9,0xe0e0e0e0e0e0e0e,0xa0a0a0a0a0a0a0a,
 0xf9f9f9f9f9f9f9f9,0xf0f0f0f0f0f0f0f,0xd0d0d0d0d0d0d0d,0x505050505050505,0x707070707070707,0xf6f6f6f6f6f6f6f6,0x505050505050505,
 0xfbfbfbfbfbfbfbfb,0xe0e0e0e0e0e0e0e0,0xc0c0c0c0c0c0c0c,0x505050505050505,0xecececececececec,0x808080808080808,0xfcfcfcfcfcfcfcfc,
 0xf9f9f9f9f9f9f9f9,0x404040404040404,0x505050505050505,0xefefefefefefefef,0x808080808080808,0xfcfcfcfcfcfcfcfc,0xf9f9f9f9f9f9f9f9,
 0x606060606060606,0x1313131313131313,0x909090909090909,0x0,0x303030303030303,0xfcfcfcfcfcfcfcfc,0xfefefefefefefefe,0xecececececececec,
 0xfbfbfbfbfbfbfbfb,0x0,0x303030303030303,0xfcfcfcfcfcfcfcfc,0x0,0xe6e6e6e6e6e6e6e6,0x1919191919191919,0x0,0xb0b0b0b0b0b0b0b,
 0xf5f5f5f5f5f5f5f5,0xffffffffffffffff,0xfcfcfcfcfcfcfcfc,0xfefefefefefefefe,0xfafafafafafafafa,0xf0f0f0f0f0f0f0f0,0xecececececececec,
 0x202020202020202,0xfdfdfdfdfdfdfdfd,0xffffffffffffffff,0x404040404040404,0xb0b0b0b0b0b0b0b,0xefefefefefefefef,0x1010101010101010,
 0x1818181818181818,0xe1e1e1e1e1e1e1e1,0x808080808080808,0x1616161616161616,0xe3e3e3e3e3e3e3e3,0xffffffffffffffff,0x303030303030303,
 0xfcfcfcfcfcfcfcfc,0x404040404040404,0x909090909090909,0xf3f3f3f3f3f3f3f3,0x0,0xf0f0f0f0f0f0f0f,0xf4f4f4f4f4f4f4f4,0x0,0x0,0x0,0x0,0x0,0x0,
 0x0,0x0,0x0,0xd0d0d0d0d0d0d0d0,0xd9d9d9d9d9d9d9d9,0xfcfcfcfcfcfcfcfc,0x1010101010101010,0x2727272727272727,0x2121212121212121,
 0xb0b0b0b0b0b0b0b,0x1e1e1e1e1e1e1e1e,0x808080808080808,0x808080808080808,0xc0c0c0c0c0c0c0c,0xf9f9f9f9f9f9f9f9,0xc0c0c0c0c0c0c0c,
 0xcfcfcfcfcfcfcfcf,0xf5f5f5f5f5f5f5f5,0x1313131313131313,0x404040404040404,0x404040404040404,0xc2c2c2c2c2c2c2c2,0xedededededededed,
 0x4848484848484848,0x3131313131313131,0xb0b0b0b0b0b0b0b,0x2323232323232323,0xe9e9e9e9e9e9e9e9,0x8f8f8f8f8f8f8f8f,0xfefefefefefefefe,
 0xfcfcfcfcfcfcfcfc,0x808080808080808,0x1111111111111111,0xe8e8e8e8e8e8e8e8,0xf0f0f0f0f0f0f0f,0xedededededededed,0xf9f9f9f9f9f9f9f9,
 0xfafafafafafafafa,0x4141414141414141,0x0,0xb0b0b0b0b0b0b0b,0xe3e3e3e3e3e3e3e3,0x1111111111111111,0xf9f9f9f9f9f9f9f9,0x808080808080808,
 0x606060606060606,0xfbfbfbfbfbfbfbfb,0xf8f8f8f8f8f8f8f8,0x404040404040404,0x4f4f4f4f4f4f4f4f,0xecececececececec,0x303030303030303,
 0xf0f0f0f0f0f0f0f,0xe5e5e5e5e5e5e5e5,0xf1f1f1f1f1f1f1f1,0x1919191919191919,0xf0f0f0f0f0f0f0f,0x1414141414141414,0xffffffffffffffff,
 0xf0f0f0f0f0f0f0f,0xf9f9f9f9f9f9f9f9,0x2a2a2a2a2a2a2a2a,0x808080808080808,0xa0a0a0a0a0a0a0a,0xa0a0a0a0a0a0a0a,0xfdfdfdfdfdfdfdfd,
 0xe0e0e0e0e0e0e0e,0x2828282828282828,0xeeeeeeeeeeeeeeee,0x404040404040404,0x101010101010101,0xfcfcfcfcfcfcfcfc,0xbebebebebebebebe,
 0xdededededededede,0xfdfdfdfdfdfdfdfd,0xf8f8f8f8f8f8f8f8,0xfcfcfcfcfcfcfcfc,0x9e9e9e9e9e9e9e9e,0xffffffffffffffff,0xfcfcfcfcfcfcfcfc,
 0xfdfdfdfdfdfdfdfd,0xfdfdfdfdfdfdfdfd,0xfcfcfcfcfcfcfcfc,0x1111111111111111,0xdadadadadadadada,0xc0c0c0c0c0c0c0c,0x2323232323232323,
 0x3737373737373737,0xedededededededed,0x1f1f1f1f1f1f1f1f,0xf5f5f5f5f5f5f5f5,0xf3f3f3f3f3f3f3f3,0xe7e7e7e7e7e7e7e7,0xf9f9f9f9f9f9f9f9,
 0x3333333333333333,0xf2f2f2f2f2f2f2f2,0x505050505050505,0xe0e0e0e0e0e0e0e,0x1515151515151515,0x1616161616161616,0x606060606060606,
 0xe5e5e5e5e5e5e5e5,0xf3f3f3f3f3f3f3f3,0xeaeaeaeaeaeaeaea,0xeeeeeeeeeeeeeeee,0xdcdcdcdcdcdcdcdc,0xfdfdfdfdfdfdfdfd,0x1b1b1b1b1b1b1b1b,
 0xe3e3e3e3e3e3e3e3,0x1111111111111111,0x1717171717171717,0xe9e9e9e9e9e9e9e9,0xc9c9c9c9c9c9c9c9,0x1010101010101010,0xeeeeeeeeeeeeeeee,
 0x202020202020202,0x1818181818181818,0x2424242424242424,0xb0b0b0b0b0b0b0b,0xeaeaeaeaeaeaeaea,0x2e2e2e2e2e2e2e2e,0xcccccccccccccccc,
 0xfbfbfbfbfbfbfbfb,0x7777777777777777,0xeaeaeaeaeaeaeaea,0x1414141414141414,0x1a1a1a1a1a1a1a1a,0xf0f0f0f0f0f0f0f0,0x303030303030303,
 0x707070707070707,0xdbdbdbdbdbdbdbdb,0xf5f5f5f5f5f5f5f5,0xf3f3f3f3f3f3f3f3,0x202020202020202,0xf5f5f5f5f5f5f5f5,0x101010101010101,
 0xf7f7f7f7f7f7f7f7,0x303030303030303,0x2525252525252525,0xc3c3c3c3c3c3c3c3,0xf7f7f7f7f7f7f7f7,0xfbfbfbfbfbfbfbfb,0x1b1b1b1b1b1b1b1b,
 0xf7f7f7f7f7f7f7f7,0x1b1b1b1b1b1b1b1b,0xf5f5f5f5f5f5f5f5,0x2020202020202020,0xc0c0c0c0c0c0c0c,0x202020202020202,0xfafafafafafafafa,
 0x606060606060606,0x101010101010101,0x4646464646464646,0xe9e9e9e9e9e9e9e9,0x303030303030303,0x1515151515151515,0xfdfdfdfdfdfdfdfd,
 0xa0a0a0a0a0a0a0a,0xf7f7f7f7f7f7f7f7,0x404040404040404,0xc0c0c0c0c0c0c0c,0x3131313131313131,0xd0d0d0d0d0d0d0d,0xffffffffffffffff,
 0x303030303030303,0xf2f2f2f2f2f2f2f2,0xffffffffffffffff,0x707070707070707,0xefefefefefefefef,0x1b1b1b1b1b1b1b1b,0xf8f8f8f8f8f8f8f8,
 0x1e1e1e1e1e1e1e1e,0xd6d6d6d6d6d6d6d6,0xfdfdfdfdfdfdfdfd,0x0,0xb0b0b0b0b0b0b0b,0xffffffffffffffff,0x5151515151515151,0x1c1c1c1c1c1c1c1c,
 0x909090909090909,0x303030303030303,0xfdfdfdfdfdfdfdfd,0x2323232323232323,0x1414141414141414,0xa0a0a0a0a0a0a0a,0xa0a0a0a0a0a0a0a,
 0xf2f2f2f2f2f2f2f2,0xeeeeeeeeeeeeeeee,0x1212121212121212,0x808080808080808,0xfcfcfcfcfcfcfcfc,0xf6f6f6f6f6f6f6f6,0x808080808080808,
 0xe6e6e6e6e6e6e6e6,0xc0c0c0c0c0c0c0c,0x202020202020202,0x1111111111111111,0xe8e8e8e8e8e8e8e8,0xeaeaeaeaeaeaeaea,0xd2d2d2d2d2d2d2d2,
 0x8080808080808080,0xf5f5f5f5f5f5f5f5,0xf9f9f9f9f9f9f9f9,0xfafafafafafafafa,0x0,0x5e5e5e5e5e5e5e5e,0xdededededededede,0x1010101010101010,
 0xf1f1f1f1f1f1f1f1,0x3939393939393939,0xf3f3f3f3f3f3f3f3,0xdddddddddddddddd,0x2525252525252525,0xf8f8f8f8f8f8f8f8,0xe1e1e1e1e1e1e1e1,
 0xffffffffffffffff,0xb7b7b7b7b7b7b7b7,0xefefefefefefefef,0x505050505050505,0x2424242424242424,0xfcfcfcfcfcfcfcfc,0x9595959595959595,
 0xf4f4f4f4f4f4f4f4,0xebebebebebebebeb,0xf4f4f4f4f4f4f4f4,0x505050505050505,0x505050505050505,0x2424242424242424,0x3939393939393939,
 0xf0f0f0f0f0f0f0f,0xffffffffffffffff,0xf0f0f0f0f0f0f0f,0x303030303030303,0x2828282828282828,0x2f2f2f2f2f2f2f2f,0xf4f4f4f4f4f4f4f4,
 0xfcfcfcfcfcfcfcfc,0xfdfdfdfdfdfdfdfd,0xf2f2f2f2f2f2f2f2,0xffffffffffffffff,0x101010101010101,0xf9f9f9f9f9f9f9f9,0x303030303030303,
 0xfbfbfbfbfbfbfbfb,0xe7e7e7e7e7e7e7e7,0xf4f4f4f4f4f4f4f4,0x1111111111111111,0x808080808080808,0x1717171717171717,0xe7e7e7e7e7e7e7e7,
 0x5555555555555555,0x1818181818181818,0xf0f0f0f0f0f0f0f0,0xf8f8f8f8f8f8f8f8,0x0,0xfbfbfbfbfbfbfbfb,0xfbfbfbfbfbfbfbfb,0xfbfbfbfbfbfbfbfb,
 0x1f1f1f1f1f1f1f1f,0xe0e0e0e0e0e0e0e,0xfafafafafafafafa,0x3a3a3a3a3a3a3a3a,0xefefefefefefefef,0xf1f1f1f1f1f1f1f1,0xa0a0a0a0a0a0a0a,
 0xcfcfcfcfcfcfcfcf,0x2c2c2c2c2c2c2c2c,0xf5f5f5f5f5f5f5f5,0xf4f4f4f4f4f4f4f4,0xf4f4f4f4f4f4f4f4,0xe1e1e1e1e1e1e1e1,0xe7e7e7e7e7e7e7e7,
 0xf0f0f0f0f0f0f0f,0xf0f0f0f0f0f0f0f,0xe3e3e3e3e3e3e3e3,0x808080808080808,0xfcfcfcfcfcfcfcfc,0xf2f2f2f2f2f2f2f2,0x2a2a2a2a2a2a2a2a,
 0xf4f4f4f4f4f4f4f4,0x808080808080808,0xc0c0c0c0c0c0c0c,0x101010101010101,0x303030303030303,0xfbfbfbfbfbfbfbfb,0x202020202020202,
 0xf4f4f4f4f4f4f4f4,0xf8f8f8f8f8f8f8f8,0x606060606060606,0x505050505050505,0x606060606060606,0xffffffffffffffff,0xeaeaeaeaeaeaeaea,
 0x2f2f2f2f2f2f2f2f,0x1111111111111111,0xe0e0e0e0e0e0e0e0,0x0,0xb0b0b0b0b0b0b0b,0x2828282828282828,0xe4e4e4e4e4e4e4e4,0xf3f3f3f3f3f3f3f3,
 0xffffffffffffffff,0x606060606060606,0x2121212121212121,0xe7e7e7e7e7e7e7e7,0x707070707070707,0x505050505050505,0xe0e0e0e0e0e0e0e,
 0xefefefefefefefef,0x0,0xcccccccccccccccc,0xfdfdfdfdfdfdfdfd,0xfcfcfcfcfcfcfcfc,0xf9f9f9f9f9f9f9f9,0x303030303030303,0x4141414141414141,
 0x1010101010101010,0x606060606060606,0x0,0xecececececececec,0x1a1a1a1a1a1a1a1a,0xb0b0b0b0b0b0b0b,0x2020202020202020,0xc2c2c2c2c2c2c2c2,
 0xf0f0f0f0f0f0f0f0,0xe0e0e0e0e0e0e0e,0x202020202020202,0x707070707070707,0x1313131313131313,0xe2e2e2e2e2e2e2e2,0x404040404040404,
 0x1313131313131313,0x404040404040404,0xd0d0d0d0d0d0d0d,0x707070707070707,0x1e1e1e1e1e1e1e1e,0xbdbdbdbdbdbdbdbd,0xfdfdfdfdfdfdfdfd,
 0xffffffffffffffff,0x0,0xf2f2f2f2f2f2f2f2,0x0,0xb0b0b0b0b0b0b0b,0xc0c0c0c0c0c0c0c,0xc0c0c0c0c0c0c0c,0x1f1f1f1f1f1f1f1f,0xf5f5f5f5f5f5f5f5,
 0xa0a0a0a0a0a0a0a,0xfbfbfbfbfbfbfbfb,0x1616161616161616,0xfefefefefefefefe,0x505050505050505,0xffffffffffffffff,0xf6f6f6f6f6f6f6f6,
 0x1313131313131313,0x303030303030303,0x3838383838383838,0xe0e0e0e0e0e0e0e0,0x2e2e2e2e2e2e2e2e,0x0,0x303030303030303,0xe6e6e6e6e6e6e6e6,
 0xffffffffffffffff,0x404040404040404,0xf9f9f9f9f9f9f9f9,0xf8f8f8f8f8f8f8f8,0x303030303030303,0x2d2d2d2d2d2d2d2d,0xfafafafafafafafa,
 0xffffffffffffffff,0xf7f7f7f7f7f7f7f7,0x1313131313131313,0xf2f2f2f2f2f2f2f2,0x606060606060606,0x1111111111111111,0x5c5c5c5c5c5c5c5c,
 0xe6e6e6e6e6e6e6e6,0x1111111111111111,0x808080808080808,0x404040404040404,0xf5f5f5f5f5f5f5f5,0xb0b0b0b0b0b0b0b,0x4949494949494949,
 0x3c3c3c3c3c3c3c3c,0xa0a0a0a0a0a0a0a,0x1414141414141414,0xb9b9b9b9b9b9b9b9,0xe6e6e6e6e6e6e6e6,0xfbfbfbfbfbfbfbfb,0x1616161616161616,
 0xf0f0f0f0f0f0f0f0,0xf2f2f2f2f2f2f2f2,0xfbfbfbfbfbfbfbfb,0xe2e2e2e2e2e2e2e2,0x2929292929292929,0x101010101010101,0x707070707070707,
 0xfdfdfdfdfdfdfdfd,0xcfcfcfcfcfcfcfcf,0xf2f2f2f2f2f2f2f2,0xe0e0e0e0e0e0e0e,0xe3e3e3e3e3e3e3e3,0x1414141414141414,0xffffffffffffffff,
 0xf9f9f9f9f9f9f9f9,0x505050505050505,0xf5f5f5f5f5f5f5f5,0xfdfdfdfdfdfdfdfd,0xb7b7b7b7b7b7b7b7,0xfdfdfdfdfdfdfdfd,0xf9f9f9f9f9f9f9f9,
 0xfdfdfdfdfdfdfdfd,0x1414141414141414,0xfefefefefefefefe,0x1818181818181818,0xf8f8f8f8f8f8f8f8,0x0,0x707070707070707,0xb4b4b4b4b4b4b4b4,
 0xffffffffffffffff,0xf0f0f0f0f0f0f0f0,0xf1f1f1f1f1f1f1f1,0xf8f8f8f8f8f8f8f8,0x303030303030303,0x606060606060606,0x3d3d3d3d3d3d3d3d,
 0xa0a0a0a0a0a0a0a,0x1313131313131313,0xf0f0f0f0f0f0f0f,0xe2e2e2e2e2e2e2e2,0xf7f7f7f7f7f7f7f7,0x1313131313131313,0x808080808080808,
 0x3a3a3a3a3a3a3a3a,0xf8f8f8f8f8f8f8f8,0xf2f2f2f2f2f2f2f2,0x1919191919191919,0xfcfcfcfcfcfcfcfc,0xb0b0b0b0b0b0b0b,0x2727272727272727,
 0xffffffffffffffff,0xf8f8f8f8f8f8f8f8,0x3d3d3d3d3d3d3d3d,0xfcfcfcfcfcfcfcfc,0x4646464646464646,0xf5f5f5f5f5f5f5f5,0xf4f4f4f4f4f4f4f4,
 0xfcfcfcfcfcfcfcfc,0xfafafafafafafafa,0x101010101010101,0xfbfbfbfbfbfbfbfb,0x606060606060606,0xebebebebebebebeb,0xebebebebebebebeb,
 0x202020202020202,0xeaeaeaeaeaeaeaea,0x1d1d1d1d1d1d1d1d,0xdededededededede,0x1919191919191919,0x1212121212121212,0xf5f5f5f5f5f5f5f5,
 0xd8d8d8d8d8d8d8d8,0xf7f7f7f7f7f7f7f7,0xc9c9c9c9c9c9c9c9,0x1111111111111111,0x1111111111111111,0xe9e9e9e9e9e9e9e9,0x5252525252525252,
 0x1f1f1f1f1f1f1f1f,0x404040404040404,0xe2e2e2e2e2e2e2e2,0x202020202020202,0x1c1c1c1c1c1c1c1c,0xdadadadadadadada,0xe5e5e5e5e5e5e5e5,
 0xfafafafafafafafa,0xdfdfdfdfdfdfdfdf,0xf3f3f3f3f3f3f3f3,0xb9b9b9b9b9b9b9b9,0xfdfdfdfdfdfdfdfd,0xfbfbfbfbfbfbfbfb,0x303030303030303,
 0x505050505050505,0x1a1a1a1a1a1a1a1a,0xfdfdfdfdfdfdfdfd,0xe9e9e9e9e9e9e9e9,0xe9e9e9e9e9e9e9e9,0x505050505050505,0xf4f4f4f4f4f4f4f4,
 0xe8e8e8e8e8e8e8e8,0xfefefefefefefefe,0xa6a6a6a6a6a6a6a6,0xfcfcfcfcfcfcfcfc,0xfefefefefefefefe,0xfefefefefefefefe,0xf8f8f8f8f8f8f8f8,
 0xf3f3f3f3f3f3f3f3,0x505050505050505,0x606060606060606,0xfdfdfdfdfdfdfdfd,0x2020202020202020,0x3535353535353535,0xf1f1f1f1f1f1f1f1,
 0xf1f1f1f1f1f1f1f1,0x505050505050505,0xcbcbcbcbcbcbcbcb,0xdadadadadadadada,0xe0e0e0e0e0e0e0e0,0xfcfcfcfcfcfcfcfc,0x2b2b2b2b2b2b2b2b,
 0xeaeaeaeaeaeaeaea,0xf0f0f0f0f0f0f0f0,0x1212121212121212,0xf5f5f5f5f5f5f5f5,0x1313131313131313,0xfcfcfcfcf9f9f9f9,0xc7c7c7c7e4e4e4e4,
 0xcfcfcfcfedededed,0xf6f6f6f6e2e2e2e2,0x86868686a9a9a9a9,0xc0c0c0c0cbcbcbcb,0xefefefefe4e4e4e4,0xa5a5a5a5b7b7b7b7,0xe3e3e3e3d3d3d3d3,
 0xd2d2d2d21c1c1c1c,0x8f8f8f8f2d2d2d2d,0xb6b6b6b61c1c1c1c,0x1c1c1c1c24242424,0x1313131360606060,0x909090935353535,0xf5f5f5f51a1a1a1a,
 0xd7d7d7d73e3e3e3e,0xe1e1e1e12d2d2d2d,0x21212121b1b1b1b1,0x4c4c4c4ccfcfcfcf,0x37373737d7d7d7d7,0x18181818bfbfbfbf,0x55555555b8b8b8b8,
 0x2d2d2d2dd1d1d1d1,0x1c1c1c1cadadadad,0x40404040c6c6c6c6,0x27272727e8e8e8e8,0x17171717d2d2d2d2,0x3d3d3d3dc9c9c9c9,0x29292929e3e3e3e3,
 0x1d1d1d1dd5d5d5d5,0x54545454a6a6a6a6,0x41414141c0c0c0c0,0x19191919e6e6e6e6,0x2f2f2f2fadadadad,0x1d1d1d1db9b9b9b9,0xf9f9f9f9e7e7e7e7,
 0xd8d8d8d8cececece,0xd5d5d5d5e3e3e3e3,0xe4e4e4e4ebebebeb,0x99999999b4b4b4b4,0xcbcbcbcbbabababa,0xf5f5f5f5e2e2e2e2,0xcbcbcbcbbebebebe,
 0xd2d2d2d2cacacaca,0xebebebebedededed,0x97979797cacacaca,0xa9a9a9a9d8d8d8d8,0x8080808dcdcdcdc,0xe9e9e9e9a8a8a8a8,0xe6e6e6e6bfbfbfbf,
 0x15151515e3e3e3e3,0x39393939c2c2c2c2,0x26262626c9c9c9c9,0x10101010f0f0f0f0,0x2d2d2d2db5b5b5b5,0x2c2c2c2cc2c2c2c2,0x10101010ecececec,
 0x7e7e7e7e8f8f8f8f,0x3a3a3a3aabababab,0x16161616e1e1e1e1,0x6f6f6f6f9d9d9d9d,0x14141414c2c2c2c2,0x242424240c0c0c0c,0x404040400e0e0e0e,
 0x3535353522222222,0x1818181813131313,0x6e6e6e6e22222222,0x4343434334343434,0x2121212122222222,0x545454543b3b3b3b,0x434343433a3a3a3a,
 0xd0d0d0de6e6e6e6,0x3030303cacacaca,0xf8f8f8f8dfdfdfdf,0x7070707cacacaca,0x2e2e2e2ea2a2a2a2,0x31313131cbcbcbcb,0x10101010dddddddd,
 0x36363636c4c4c4c4,0x3d3d3d3ddcdcdcdc,0xf1f1f1f10a0a0a0a,0xd9d9d9d91e1e1e1e,0xdadadada0d0d0d0d,0xe9e9e9e911111111,0xc9c9c9c93c3c3c3c,
 0xdcdcdcdc20202020,0xe1e1e1e117171717,0xdadadada40404040,0xf2f2f2f21a1a1a1a,0xc0c0c0c018181818,0xc8c8c8c831313131,0xb0b0b0b19191919,
 0xb7b7b7b726262626,0xdcdcdcdc5b5b5b5b,0x323232323b3b3b3b,0xfbfbfbfb16161616,0x131313133f3f3f3f,0x3c3c3c3c31313131,0x32323232dadadada,
 0x6c6c6c6ccdcdcdcd,0x53535353e6e6e6e6,0x2b2b2b2bd9d9d9d9,0x7f7f7f7fb0b0b0b0,0x63636363d2d2d2d2,0x1e1e1e1eefefefef,0x45454545e7e7e7e7,
 0x37373737f7f7f7f7,0xececececeaeaeaea,0xe2e2e2e2e1e1e1e1,0xdedededef3f3f3f3,0xcdcdcdcde0e0e0e0,0xafafafafadadadad,0xc0c0c0c0c9c9c9c9,
 0xd8d8d8d8e8e8e8e8,0xc6c6c6c6adadadad,0xd9d9d9d9cfcfcfcf,0xf7f7f7f7e4e4e4e4,0xd4d4d4d4e0e0e0e0,0xd8d8d8d8e6e6e6e6,0xebebebebc8c8c8c8,
 0xb4b4b4b4c6c6c6c6,0xa2a2a2a2c4c4c4c4,0x2020202e6e6e6e6,0xc6c6c6c6c7c7c7c7,0xc9c9c9c9d9d9d9d9,0x1616161614141414,0x444444443a3a3a3a,
 0x2323232337373737,0xc0c0c0c3b3b3b3b,0x7e7e7e7e58585858,0x2d2d2d2d33333333,0x1e1e1e1e3e3e3e3e,0x595959594b4b4b4b,0x151515151f1f1f1f,
 0x191919191a1a1a1a,0x3c3c3c3c2c2c2c2c,0x2b2b2b2b27272727,0x353535351e1e1e1e,0x5e5e5e5e51515151,0x3939393941414141,0x2b2b2b2b16161616,
 0x3a3a3a3a3e3e3e3e,0x1919191930303030,0xececececdddddddd,0x171717170a0a0a0a,0xf5f5f5f5babababa,0x11111111ebebebeb,0x3030303f1f1f1f1,
 0xcbcbcbcb21212121,0xf3f3f3f3f3f3f3f3,0x50505050e0e0e0e,0xd1d1d1d1e9e9e9e9,0xebebebeb0e0e0e0e,0xdfdfdfdf20202020,0xf0f0f0f003030303,
 0xf2f2f2f2e7e7e7e7,0xe4e4e4e418181818,0xefefefef1a1a1a1a,0xf9f9f9f906060606,0x606060600000000,0xd0d0d0d0b0b0b0b,0xc0c0c0c0ecececec,
 0x1313131306060606,0xfdfdfdfd2e2e2e2e,0xd2d2d2d204040404,0xfcfcfcfc1f1f1f1f,0xe0e0e0ef6f6f6f6,0xfbfbfbfbe6e6e6e6,0xf4f4f4f406060606,
 0x14141414fefefefe,0x404040412121212,0x70707070c0c0c0c,0xb3b3b3b304040404,0xf3f3f3f30a0a0a0a,0xc3c3c3c305050505,0x17171717ebebebeb,
 0xf9f9f9f918181818,0x5050505f4f4f4f4,0xf8f8f8f81b1b1b1b,0x1919191923232323,0xdadadadaeaeaeaea,0x202020200000000,0x24242424dcdcdcdc,
 0x60606060d0d0d0d,0x23232323e9e9e9e9,0x50505053c3c3c3c,0xfcfcfcfcdbdbdbdb,0xf6f6f6f6f5f5f5f5,0xf8f8f8f814141414,0x242424240f0f0f0f,
 0xecececec1a1a1a1a,0xfefefefef8f8f8f8,0x101010111111111,0xfdfdfdfdfdfdfdfd,0x5c5c5c5cf9f9f9f9,0xe6e6e6e6d1d1d1d1,0xfcfcfcfce7e7e7e7,
 0xf5f5f5f515151515,0xf9f9f9f90f0f0f0f,0xe4e4e4e4e8e8e8e8,0xd9d9d9d903030303,0xd0d0d0d00b0b0b0b,0x212121210d0d0d0d,0xe7e7e7e711111111,
 0xe6e6e6e6f1f1f1f1,0x1010101c4c4c4c4,0xe0e0e0efbfbfbfb,0xe0e0e0ef6f6f6f6,0xd2d2d2d2eaeaeaea,0xfbfbfbfb0a0a0a0a,0x5050505eeeeeeee,
 0xfefefefe0b0b0b0b,0x2525252510101010,0xf8f8f8f8fefefefe,0x2222222210101010,0x3737373714141414,0x707070708080808,0xd0d0d0d17171717,
 0xd0d0d0d13131313,0xfbfbfbfbf2f2f2f2,0x151515151d1d1d1d,0xf5f5f5f50c0c0c0c,0xfafafafa15151515,0x8080808fcfcfcfc,0xf0f0f0f00e0e0e0e,
 0xf5f5f5f5f8f8f8f8,0x2727272722222222,0x202020202020202,0xfcfcfcfc0e0e0e0e,0xfffffffff4f4f4f4,0x202020203030303,0xa0a0a0a0c0c0c0c,
 0x9090909dfdfdfdf,0xffffffffcfcfcfcf,0x2020202f3f3f3f3,0xfafafafafdfdfdfd,0xb0b0b0bffffffff,0xffffffff0a0a0a0a,0xededededefefefef,
 0xd8d8d8d802020202,0x2c2c2c2cf1f1f1f1,0xf3f3f3f30a0a0a0a,0xf3f3f3f36c6c6c6c,0xe0e0e0efafafafa,0x15151515f8f8f8f8,0xd0d0d0df8f8f8f8,
 0x2121212107070707,0x171717171c1c1c1c,0xa0a0a0aeeeeeeee,0xeaeaeaead5d5d5d5,0xb4b4b4b4fefefefe,0xd8d8d8d826262626,0xc0c0c0c0fafafafa,
 0xd0d0d0dfdfdfdfd,0xfafafafaafafafaf,0x1e1e1e1e45454545,0xf8f8f8f804040404,0xe0e0e0e20202020,0xf5f5f5f5f9f9f9f9,0x6060606ffffffff,
 0xeaeaeaea03030303,0xfefefefe01010101,0xb0b0b0b0a0a0a0a,0x707070734343434,0xfafafafa2a2a2a2a,0x404040408080808,0x28282828f3f3f3f3,
 0xeaeaeaeaefefefef,0xf1f1f1f1fdfdfdfd,0xfcfcfcfcfafafafa,0x1010101044444444,0x1b1b1b1bf1f1f1f1,0xdadadada0a0a0a0a,0xfafafafaf4f4f4f4,
 0x1a1a1a1a00000000,0x1111111101010101,0xfbfbfbfb14141414,0xd3d3d3d3dfdfdfdf,0x11111111ffffffff,0xdfdfdfdff9f9f9f9,0xf1f1f1f1fbfbfbfb,
 0xf0f0f0f000000000,0xe6e6e6e619191919,0x18181818efefefef,0xfcfcfcfc0d0d0d0d,0xfafafafaebebebeb,0x5050505f2f2f2f2,0x171717170e0e0e0e,
 0xf8f8f8f8f1f1f1f1,0x69696969edededed,0xf1f1f1f1edededed,0xeaeaeaea02020202,0x7f7f7f7ff5f5f5f5,0x19191919,0xf8f8f8f823232323,
 0x707070707070707,0xefefefef0c0c0c0c,0xf6f6f6f6f5f5f5f5,0xfafafafa0b0b0b0b,0x606060612121212,0x909090908080808,0x4040404dcdcdcdc,
 0x161616161d1d1d1d,0xfbfbfbfbfefefefe,0xededededf5f5f5f5,0xf0f0f0fe7e7e7e7,0xf3f3f3f321212121,0xf6f6f6f604040404,0xeeeeeeee05050505,
 0xb0b0b0b14141414,0x2424242400000000,0xffffffff07070707,0xeeeeeeeef4f4f4f4,0x60606060d0d0d0d,0x3131313112121212,0x101010100f0f0f0f,
 0x606060606060606,0x909090901010101,0xa0a0a0acdcdcdcd,0xddddddddfafafafa,0x12121212f9f9f9f9,0xe0e0e0edededede,0x7070707fdfdfdfd,
 0x5555555509090909,0xd0d0d0df2f2f2f2,0x1c1c1c1cffffffff,0xe0e0e0e016161616,0x37373737e8e8e8e8,0xdadadadaf6f6f6f6,0x11111111f3f3f3f3,
 0x2929292910101010,0xc0c0c0c0d0d0d0d,0xbdbdbdbdf6f6f6f6,0x2a2a2a2aecececec,0xf3f3f3f3eaeaeaea,0xfafafafaf5f5f5f5,0xffffffff1a1a1a1a,
 0xf2f2f2f22d2d2d2d,0xeeeeeeeeedededed,0xf0f0f0f010101010,0xf4f4f4f402020202,0xf0f0f0f01010101,0x10101010c0c0c0c,0xe1e1e1e1fefefefe,
 0x1c1c1c1cdfdfdfdf,0x17171717f8f8f8f8,0xdfdfdfdfd6d6d6d6,0x1b1b1b1bf7f7f7f7,0x5f5f5f5ff2f2f2f2,0xd7d7d7d7ecececec,0x2c2c2c2cf8f8f8f8,
 0xa0a0a0a01010101,0x1a1a1a1afbfbfbfb,0xdfdfdfdf0e0e0e0e,0xf6f6f6f613131313,0xd0d0d0df1f1f1f1,0xf9f9f9f912121212,0xfbfbfbfb11111111,
 0x101010111111111,0xefefefefedededed,0xf7f7f7f7f7f7f7f7,0x303030327272727,0x1e1e1e1ef8f8f8f8,0x31313131f9f9f9f9,0xe3e3e3e3efefefef,
 0x50505050a0a0a0a,0xeeeeeeee09090909,0xf3f3f3f3e4e4e4e4,0xffffffffffffffff,0xdcdcdcdcf4f4f4f4,0xe1e1e1e104040404,0x7070707f4f4f4f4,
 0x1111111107070707,0xf0f0f0f0f6f6f6f6,0xf8f8f8f8f7f7f7f7,0xfefefefeedededed,0xe6e6e6e60c0c0c0c,0xefefefeff5f5f5f5,0x1010101f9f9f9f9,
 0xedededed29292929,0x7070707fcfcfcfc,0xf0f0f0f0f2f2f2f2,0x9090909,0xc0c0c0c02020202,0xb0b0b0bd9d9d9d9,0xededededf6f6f6f6,
 0xd4d4d4d408080808,0xf2f2f2f21e1e1e1e,0x14141414fefefefe,0x55555555f4f4f4f4,0xdddddddd1e1e1e1e,0xfafafafa35353535,0x595959590a0a0a0a,
 0x252525250c0c0c0c,0x1010101008080808,0xdfdfdfdfe3e3e3e3,0x2a2a2a2a1c1c1c1c,0xf1f1f1f102020202,0xf7f7f7f7ffffffff,0xd0d0d0d0fefefefe,
 0xc8c8c8c8fdfdfdfd,0xf1f1f1f1eeeeeeee,0x808080801010101,0xffffffff14141414,0xf9f9f9f9fefefefe,0xb4b4b4b4f5f5f5f5,0xf8f8f8f8,
 0xecececec0c0c0c0c,0x50505050a0a0a0a,0xf1f1f1f1,0x101010116161616,0xf9f9f9f9fafafafa,0x202020205050505,0x3b3b3b3b0c0c0c0c,0xf3f3f3f3,
 0x1a1a1a1a09090909,0xeeeeeeeee6e6e6e6,0xefefefef15151515,0xc0c0c0c3c3c3c3c,0x1414141415151515,0xdfdfdfdf0c0c0c0c,0x404040408080808,
 0xfefefefe38383838,0xf3f3f3f304040404,0x909090912121212,0xf3f3f3f3fdfdfdfd,0x202020208080808,0xd0d0d0d07070707,0xecececec2e2e2e2e,
 0xd0d0d0df3f3f3f3,0x202020220202020,0xa0a0a0aefefefef,0x8a8a8a8a25252525,0xf5f5f5f5dededede,0xf8f8f8f8fbfbfbfb,0x2d2d2d2dfbfbfbfb,
 0xfbfbfbfb09090909,0xfbfbfbfbe9e9e9e9,0xf0f0f0f,0xeaeaeaeae4e4e4e4,0x242424240b0b0b0b,0xd0d0d0d12121212,0xe0e0e0e0ffffffff,
 0xfefefefe0a0a0a0a,0x202020202020202,0x606060642424242,0x1515151502020202,0x30303030d0d0d0d,0xfdfdfdfd1b1b1b1b,0x373737370a0a0a0a,
 0x1010101ecececec,0xe7e7e7e7,0x808080808080808,0xe7e7e7e7,0xc0c0c0c02020202,0xe0e0e0e06060606,0xfdfdfdfd02020202,0xfffffffff4f4f4f4,
 0xf3f3f3f3ebebebeb,0xf8f8f8f8e5e5e5e5,0xa0a0a0aeeeeeeee,0x202020218181818,0xd2d2d2d2f9f9f9f9,0x4e4e4e4e07070707,0xfcfcfcfce4e4e4e4,
 0x141414140f0f0f0f,0xf2f2f2f216161616,0x1a1a1a1a0a0a0a0a,0xd8d8d8d807070707,0xe8e8e8e82a2a2a2a,0xf8f8f8f822222222,0xd9d9d9d900000000,
 0x8080808ffffffff,0xa0a0a0a11111111,0xf4f4f4f4f5f5f5f5,0xf0f0f0ffbfbfbfb,0x7070707fbfbfbfb,0xeeeeeeeefefefefe,0x242424240a0a0a0a,
 0xf9f9f9f9f0f0f0f0,0x4040404e4e4e4e4,0xfcfcfcfc06060606,0xfcfcfcfcffffffff,0x80808080f0f0f0f,0xfdfdfdfdfcfcfcfc,0xfcfcfcfcfcfcfcfc,
 0xd0d0d0dfefefefe,0x4040404f7f7f7f7,0x181818182b2b2b2b,0x18181818f5f5f5f5,0x1b1b1b1b07070707,0xe9e9e9e9e4e4e4e4,0x202020218181818,
 0xfdfdfdfd04040404,0xfdfdfdfdfdfdfdfd,0x9090909e9e9e9e9,0xf6f6f6f609090909,0x21212121f8f8f8f8,0xffffffff0d0d0d0d,0x11111111f5f5f5f5,
 0xf4f4f4f4ecececec,0x6060606fafafafa,0xfbfbfbfbe6e6e6e6,0x1b1b1b1be4e4e4e4,0xecececec0c0c0c0c,0xf3f3f3f3f2f2f2f2,0xb0b0b0b14141414,
 0xf7f7f7f70c0c0c0c,0xf4f4f4f41e1e1e1e,0x2929292910101010,0x2020202012121212,0x13131313e6e6e6e6,0x909090926262626,0x40404040b0b0b0b,
 0xf1f1f1f108080808,0xfbfbfbfbffffffff,0xe5e5e5e5eaeaeaea,0xfafafafa13131313,0x505050512121212,0xa0a0a0ac8c8c8c8,0x14141414f4f4f4f4,
 0x13131313d1d1d1d1,0xf0f0f0f13131313,0xd0d0d0de5e5e5e5,0xf1f1f1f10c0c0c0c,0x4040404fcfcfcfc,0x8080808f2f2f2f2,0xf4f4f4f4,0x28282828,
 0xf9f9f9f9,0xffffffff,0x45454545,0xe0e0e0e0,0x23232323,0xf9f9f9f9,0x19191919,0xf1f1f1f1,0x30303030,0xeeeeeeee,0xf1f1f1f1,0xa0a0a0a,
 0xf8f8f8f8,0x8080808,0x12121212f9f9f9f9,0x3030303f7f7f7f7,0xefefefeff1f1f1f1,0xb0b0b0bf4f4f4f4,0xf6f6f6f6f8f8f8f8,0x12121212,
 0xf8f8f8f8f2f2f2f2,0xd2d2d2d231313131,0x1010101009090909,0x1010101002020202,0xfefefefef9f9f9f9,0xfbfbfbfb33333333,0xf2f2f2f20a0a0a0a,
 0xfefefefe0c0c0c0c,0xf9f9f9f914141414,0x3a3a3a3af7f7f7f7,0xf8f8f8f8f4f4f4f4,0xf0f0f0f00000000,0xd0d0d0df6f6f6f6,0x3030303eaeaeaea,
 0xe0e0e0e0,0xefefefef09090909,0x171717171b1b1b1b,0xf8f8f8f8e6e6e6e6,0xa0a0a0aecececec,0xc0c0c0c00000000,0x1111111107070707,
 0xfcfcfcfc17171717,0x202020206060606,0xffffffffe5e5e5e5,0xf8f8f8f807070707,0xfafafafa12121212,0xf4f4f4f4dddddddd,0xd0d0d0d01b1b1b1b,
 0xa0a0a0a11111111,0xe4e4e4e407070707,0xffffffff05050505,0xf5f5f5f515151515,0x9090909dcdcdcdc,0xf2f2f2f211111111,0xe7e7e7e71d1d1d1d,
 0xf6f6f6f60c0c0c0c,0x2626262613131313,0xd0d0d0de4e4e4e4,0xf9f9f9f902020202,0xf0f0f0f02020202,0x9090909f4f4f4f4,0xfbfbfbfbeaeaeaea,
 0x18181818e0e0e0e0,0x41414141dcdcdcdc,0x8080808fbfbfbfb,0xf0f0f0ff5f5f5f5,0x90909090b0b0b0b,0x707070703030303,0x30303031e1e1e1e,
 0x7373737319191919,0x1b1b1b1be6e6e6e6,0x1111111128282828,0xffffffff0e0e0e0e,0xf2f2f2f205050505,0x1010101d6d6d6d6,0xd0d0d0d004040404,
 0x16161616,0x2020202e9e9e9e9,0xfefefefe0d0d0d0d,0x1212121254545454,0x80808081d1d1d1d,0x1e1e1e1efbfbfbfb,0xf3f3f3f30a0a0a0a,
 0xe3e3e3e33e3e3e3e,0x1d1d1d1dedededed,0xfdfdfdfde8e8e8e8,0xc0c0c0c93939393,0xf9f9f9f9e5e5e5e5,0xf5f5f5f5f8f8f8f8,0x9090909e7e7e7e7,
 0xf0f0f0f0f3f3f3f3,0xe4e4e4e4fbfbfbfb,0xf9f9f9f901010101,0xe2e2e2e2f6f6f6f6,0xeeeeeeee,0xe9e9e9e9fafafafa,0x808080817171717,
 0x40404040eaeaeaea,0xfefefefefcfcfcfc,0x9090909f9f9f9f9,0xfcfcfcfcfbfbfbfb,0xf7f7f7f703030303,0x1e1e1e1effffffff,0xfcfcfcfcf3f3f3f3,
 0xfefefefe06060606,0x2020202fafafafa,0x9090909fbfbfbfb,0x35353535f8f8f8f8,0xf7f7f7f7fcfcfcfc,0x2b2b2b2b30303030,0x9090909f0f0f0f0,
 0xdfdfdfdf1e1e1e1e,0xd9d9d9d901010101,0xc4c4c4c401010101,0xdcdcdcdc11111111,0x7070707e4e4e4e4,0xefefefef0d0d0d0d,0xedededed02020202,
 0x3131313105050505,0x4f4f4f4ff4f4f4f4,0x14141414f0f0f0f0,0xb0b0b0bedededed,0x606060603030303,0xe8e8e8e8f4f4f4f4,0x17171717e9e9e9e9,
 0x1a1a1a1af2f2f2f2,0xfcfcfcfc08080808,0xcecececef4f4f4f4,0xfdfdfdfd04040404,0xf8f8f8f8ffffffff,0xfbfbfbfbc6c6c6c6,0xd0d0d0defefefef,
 0xfbfbfbfb01010101,0x43434343f3f3f3f3,0x202020206060606,0xfbfbfbfb,0x6060606fafafafa,0xf9f9f9f9f9f9f9f9,0x10101010a0a0a0a,
 0x2b2b2b2b34343434,0xe0e0e0e0c0c0c0c,0xf5f5f5f5fafafafa,0x5050505d5d5d5d5,0x7070707f4f4f4f4,0xfbfbfbfb05050505,0x2b2b2b2beaeaeaea,
 0x808080803030303,0xe9e9e9e9f5f5f5f5,0x4040404e6e6e6e6,0x2525252501010101,0x2020202,0xd0d0d0d009090909,0xf0f0f0f0fafafafa,
 0x8080808fefefefe,0x7070707fdfdfdfd,0x7070707fdfdfdfd,0xe3e3e3e3fafafafa,0xb4b4b4b4e9e9e9e9,0xe0e0e0e0e7e7e7e7,0xd0d0d0d02020202,
 0x1c1c1c1c00000000,0xd0d0d0df3f3f3f3,0xb0b0b0bdbdbdbdb,0x2c2c2c2cf4f4f4f4,0x2121212118181818,0xeeeeeeee0d0d0d0d,0xd3d3d3d30e0e0e0e,
 0xf8f8f8f819191919,0xb0b0b0b17171717,0xf0f0f0f0f2f2f2f2,0xebebebebd4d4d4d4,0xf6f6f6f610101010,0xffffffff2c2c2c2c,0x1e1e1e1e12121212,
 0xf5f5f5f5e4e4e4e4,0xe1e1e1e1e0e0e0e0,0x15151515e7e7e7e7,0xd0d0d0df9f9f9f9,0xecececec1d1d1d1d,0x7070707f9f9f9f9,0xd0d0d0d,
 0x707070759595959,0xfefefefedededede,0x60606060f0f0f0f,0x2929292951515151,0x19191919e8e8e8e8,0x2020202d6d6d6d6,0x3030303d5d5d5d5,
 0x5050505fafafafa,0xebebebeb17171717,0x70707072e2e2e2e,0xe0e0e0ee5e5e5e5,0xdbdbdbdb14141414,0x303030324242424,0x20202020fdfdfdfd,
 0xeeeeeeeee3e3e3e3,0x4040404e4e4e4e4,0x1111111101010101,0xf4f4f4f4fcfcfcfc,0xf3f3f3f307070707,0xf9f9f9f9e7e7e7e7,0x10101010a0a0a0a,
 0xf8f8f8f823232323,0x404040409090909,0xf2f2f2f2f6f6f6f6,0xf2f2f2f2fbfbfbfb,0xf5f5f5f501010101,0x8080808fdfdfdfd,0xededededf7f7f7f7,
 0xffffffff,0xfefefefefafafafa,0xaaaaaaaaf3f3f3f3,0xffffffffeeeeeeee,0xa0a0a0a01010101,0xfbfbfbfb00000000,0xa0a0a0af9f9f9f9,
 0x101010101c1c1c1c,0xf3f3f3f321212121,0xf6f6f6f607070707,0x24242424fcfcfcfc,0xf2f2f2f2ecececec,0xe8e8e8e8efefefef,0x10101010f0f0f0f0,
 0xf5f5f5f5e9e9e9e9,0xf8f8f8f808080808,0xe0e0e0e20202020,0x37373737f8f8f8f8,0xf4f4f4f4e1e1e1e1,0x5050505,0x39393939fefefefe,
 0xfafafafa0f0f0f0f,0xededededebebebeb,0xf1f1f1f1e3e3e3e3,0xfafafafa1e1e1e1e,0xf8f8f8f8f8f8f8f8,0xedededed35353535,0xfafafafaf7f7f7f7,
 0x4040404d2d2d2d2,0xdfdfdfdf14141414,0x4040404d5d5d5d5,0xfcfcfcfcfcfcfcfc,0xe6e6e6e622222222,0xf8f8f8f806060606,0xfdfdfdfddadadada,
 0x6060606f7f7f7f7,0x40404043c3c3c3c,0x3030303fefefefe,0xe0e0e0ef5f5f5f5,0x17171717f9f9f9f9,0x303030330303030,0x60606060b0b0b0b,
 0xf7f7f7f7cececece,0x13131313f1f1f1f1,0xdfdfdfdfe3e3e3e3,0x12121212e7e7e7e7,0x2020202f9f9f9f9,0xc8c8c8c836363636,0xa0a0a0affffffff,
 0x1c1c1c1c02020202,0xe8e8e8e802020202,0x1717171703030303,0xf7f7f7f711111111,0x1f1f1f1f2c2c2c2c,0xf9f9f9f919191919,0xf9f9f9f9fefefefe,
 0x35353535e5e5e5e5,0x4040404dbdbdbdb,0xf5f5f5f5f4f4f4f4,0xd0d0d0de4e4e4e4,0xfafafafa0b0b0b0b,0xf8f8f8f8fbfbfbfb,0xe8e8e8e8e3e3e3e3,
 0x101010126262626,0xf3f3f3f308080808,0xe7e7e7e70f0f0f0f,0xffffffffe7e7e7e7,0xfdfdfdfdfcfcfcfc,0x70707070c0c0c0c,0xfcfcfcfcf7f7f7f7,
 0xe8e8e8e8fafafafa,0x707070710101010,0x3131313100000000,0xf0f0f0f00000000,0xe6e6e6e616161616,0xfbfbfbfb05050505,0x1313131304040404,
 0x70707070e0e0e0e,0xdcdcdcdcf9f9f9f9,0xe0e0e0e0c0c0c0c,0x404040403a3a3a3a,0xe8e8e8e8e4e4e4e4,0x111111110b0b0b0b,0x3939393930303030,
 0xf5f5f5f5f0f0f0f0,0xdededededededede,0xf4f4f4f4e0e0e0e0,0xf1f1f1f1fbfbfbfb,0xe6e6e6e605050505,0xd6d6d6d61e1e1e1e,0xf5f5f5f5eaeaeaea,
 0x1212121212121212,0x1d1d1d1d23232323,0x8080808e0e0e0e0,0x6060606f9f9f9f9,0x14141414f3f3f3f3,0x1010101f8f8f8f8,0xf8f8f8f8f4f4f4f4,
 0xf3f3f3f301010101,0x1010101fefefefe,0xebebebebfcfcfcfc,0xf1f1f1f12b2b2b2b,0xeeeeeeee08080808,0xd0d0d0df5f5f5f5,0x5050505,
 0x3030303f7f7f7f7,0xdddddddd00000000,0x222222220d0d0d0d,0xa0a0a0af6f6f6f6,0x2424242412121212,0xe7e7e7e722222222,0xefefefefd2d2d2d2,
 0x5050505fcfcfcfc,0xf8f8f8f80b0b0b0b,0x3030303eeeeeeee,0xf9f9f9f908080808,0xfafafafaefefefef,0xfdfdfdfd,0xf6f6f6f605050505,
 0xfafafafaf2f2f2f2,0xf7f7f7f700000000,0x707070700000000,0xfdfdfdfdf2f2f2f2,0xf0f0f0f0f8f8f8f8,0xb0b0b0b09090909,0xf0f0f0f024242424,
 0x60606060e0e0e0e,0x1e1e1e1e00000000,0xe7e7e7e708080808,0xfcfcfcfc02020202,0xd0d0d0df3f3f3f3,0xf5f5f5f5c2c2c2c2,0x3030303edededed,
 0x1f1f1f1f,0xa0a0a0a,0x16161616,0x4040404,0x80808080,0x1010101,0x17171717,0x15151515,0x19191919,0x18181818fbfbfbfb,0x23232323e8e8e8e8,
 0xf8f8f8f81d1d1d1d,0xf7f7f7f7,0x8080808e3e3e3e3,0xfafafafa1f1f1f1f,0xf3f3f3f307070707,0xfdfdfdfde5e5e5e5,0xf7f7f7f70f0f0f0f,
 0x30303030b0b0b0b,0x202020213131313,0x101010107070707,0xc0c0c0cecececec,0xb0b0b0bc9c9c9c9,0x9090909f2f2f2f2,0xffffffff0b0b0b0b,
 0xfefefefe2a2a2a2a,0xfefefefe15151515,0xa0a0a0af2f2f2f2,0x2f2f2f2f01010101,0xa0a0a0aecececec,0x707070710101010,0x1818181837373737,
 0xffffffff15151515,0xe3e3e3e3e5e5e5e5,0xd6d6d6d6f8f8f8f8,0xefefefefe6e6e6e6,0x15151515fcfcfcfc,0x555555550f0f0f0f,0xdadadada02020202,
 0x1212121207070707,0x3030303019191919,0xebebebeb09090909,0xddddddddf7f7f7f7,0xd6d6d6d611111111,0x6060606f5f5f5f5,0xececececf8f8f8f8,
 0xf5f5f5f545454545,0x11111111ecececec,0xe2e2e2e200000000,0xfdfdfdfd54545454,0x2b2b2b2bfafafafa,0xeeeeeeeee3e3e3e3,0xffffffff,
 0x5050505ecececec,0x9090909f9f9f9f9,0xffffffffe1e1e1e1,0xf0f0f0f23232323,0x1010101f4f4f4f4,0xc5c5c5c5e7e7e7e7,0xf0f0f0f023232323,
 0xb0b0b0b01010101,0x6060606f8f8f8f8,0xa0a0a0a08080808,0xeeeeeeee0a0a0a0a,0xffffffff04040404,0xefefefefe6e6e6e6,0x171717171e1e1e1e,
 0x727272720b0b0b0b,0x22222222dadadada,0xe1e1e1e101010101,0xe5e5e5e50b0b0b0b,0xdfdfdfdfecececec,0xfbfbfbfb12121212,0xe6e6e6e6d7d7d7d7,
 0x12121212fafafafa,0xfefefefecdcdcdcd,0x1717171795959595,0x2020202edededed,0xb0b0b0bebebebeb,0xd9d9d9d914141414,0xc0c0c0c0d7d7d7d7,
 0xe5e5e5e5d1d1d1d1,0x80808084c4c4c4c,0xfbfbfbfb05050505,0xfcfcfcfce4e4e4e4,0x1111111138383838,0x3f3f3f3fe9e9e9e9,0xf8f8f8f8dededede,
 0x2b2b2b2b0a0a0a0a,0x121212121f1f1f1f,0x1b1b1b1bf4f4f4f4,0xecececece0e0e0e0,0xbdbdbdbd00000000,0xdcdcdcdc22222222,0x27272727fefefefe,
 0xeeeeeeeedadadada,0xddddddddfcfcfcfc,0x3b3b3b3b08080808,0x1a1a1a1a03030303,0xd3d3d3d3f8f8f8f8,0xb6b6b6b61c1c1c1c,0x282828281b1b1b1b,
 0xdfdfdfdf05050505,0xcbcbcbcbf8f8f8f8,0x49494949d9d9d9d9,0xd7d7d7d7e9e9e9e9,0xfafafafaeaeaeaea,0x25252525fdfdfdfd,0xf7f7f7f745454545,
 0xf4f4f4f41f1f1f1f,0x1313131308080808,0xdfdfdfdfcacacaca,0x707070717171717,0x1c1c1c1c20202020,0x10101010b0b0b0b,0x5050505e0e0e0e0,
 0xf3f3f3f3e9e9e9e9,0xeeeeeeeee5e5e5e5,0xebebebebe3e3e3e3,0x212121215e5e5e5e,0xd5d5d5d5eaeaeaea,0xf0f0f0f0d5d5d5d5,0xf2f2f2f2ebebebeb,
 0xfcfcfcfcd7d7d7d7,0xe7e7e7e712121212,0xf7f7f7f711111111,0x14141414d6d6d6d6,0xffffffff25252525,0xefefefef4a4a4a4a,0x14141414f1f1f1f1,
 0xdadadadadbdbdbdb,0x17171717fefefefe,0x2e2e2e2e16161616,0x2121212104040404,0x19191919f2f2f2f2,0xe7e7e7e7f0f0f0f0,0xd6d6d6d6f2f2f2f2,
 0xe2e2e2e2fdfdfdfd,0xe4e4e4e4f1f1f1f1,0x31313131edededed,0xf4f4f4f414141414,0xdadadadaf3f3f3f3,0x18181818f1f1f1f1,0x1919191908080808,
 0x1e1e1e1ee2e2e2e2,0xc0c0c0c1a1a1a1a,0xefefefef14141414,0x11111111fdfdfdfd,0xf7f7f7f705050505,0xe8e8e8e8fefefefe,0xd9d9d9d912121212,
 0xe5e5e5e50e0e0e0e,0xc0c0c0c0d0d0d0d,0x2b2b2b2b00000000,0xb4b4b4b42d2d2d2d,0xb0b0b0bffffffff,0x202020227272727,0x808080821212121,
 0xdddddddd15151515,0xfafafafaedededed,0xdededede16161616,0x4c4c4c4c14141414,0x101010110101010,0xefefefeff5f5f5f5,0x1a1a1a1ae7e7e7e7,
 0xa6a6a6a6f6f6f6f6,0x1b1b1b1b08080808,0xfefefefedadadada,0x4040404003030303,0x1919191901010101,0x26262626b5b5b5b5,0xf6f6f6f626262626,
 0xdedededeefefefef,0xcdcdcdcd0c0c0c0c,0xdedededebabababa,0xe2e2e2e212121212,0x303030322222222,0xebebebeb13131313,0xf8f8f8f816161616,
 0x6060606f0f0f0f0,0x1919191927272727,0xededededeaeaeaea,0x1313131314141414,0xd0d0d0d3e3e3e3e,0xf3f3f3f301010101,0xd8d8d8d8f9f9f9f9,
 0xf3f3f3f30a0a0a0a,0xe3e3e3e3f0f0f0f0,0x11111111ebebebeb,0xe1e1e1e111111111,0xe0e0e0e1f1f1f1f,0x909090907070707,0x1515151510101010,
 0xf7f7f7f7f7f7f7f7,0xcdcdcdcdf1f1f1f1,0xfbfbfbfb17171717,0x19191919f2f2f2f2,0xdedededefcfcfcfc,0xe2e2e2e2ebebebeb,0x5858585805050505,
 0xe0e0e0e0f1f1f1f1,0xe0e0e0ecdcdcdcd,0xe6e6e6e6f8f8f8f8,0xe8e8e8e8e7e7e7e7,0x4a4a4a4a2d2d2d2d,0xe5e5e5e50b0b0b0b,0xededededfbfbfbfb,
 0xb5b5b5b50b0b0b0b,0x242424240a0a0a0a,0x14141414e5e5e5e5,0xc9c9c9c9e9e9e9e9,0xd5d5d5d523232323,0x4f4f4f4f2a2a2a2a,0x25252525dbdbdbdb,
 0x3c3c3c3ce7e7e7e7,0xdddddddd41414141,0x20202020ffffffff,0xd0d0d0dfdfdfdfd,0xcdcdcdcdffffffff,0x1010101002020202,0xeaeaeaea01010101,
 0x1414141401010101,0xd8d8d8d801010101,0xe2e2e2e201010101,0x1c1c1c1c02020202,0xd3d3d3d3fefefefe,0xc8c8c8c801010101,0x2323232301010101,
 0x1212121201010101,0xf5f5f5f5ffffffff,0x17171717ffffffff,0x9090909003030303,0xf5f5f5f5d4d4d4d4,0xd3d3d3d3e6e6e6e6,0xcacacacab1b1b1b1,
 0x8080808b7b7b7b7,0xfafafafad2d2d2d2,0x303030313131313,0x20202022a2a2a2a,0xf2f2f2f2e7e7e7e7,0xe9e9e9e9fafafafa,0xe2e2e2e213131313,
 0xf3f3f3f3c5c5c5c5,0xe7e7e7e7ffffffff,0x16161616efefefef,0xbfbfbfbf3c3c3c3c,0xf5f5f5f516161616,0x16161616e1e1e1e1,0x60606061c1c1c1c,
 0xf4f4f4f4e2e2e2e2,0x14141414dededede,0xc0c0c0c1c1c1c1c,0x54545454dcdcdcdc,0xf0f0f0f00b0b0b0b,0xf0f0f0f17171717,0x3636363623232323,
 0xf6f6f6f6e4e4e4e4,0xfdfdfdfd1e1e1e1e,0xedededed16161616,0xe6e6e6e6efefefef,0xf0f0f0f0efefefef,0x24242424f2f2f2f2,0x9090909dbdbdbdb,
 0xe9e9e9e9e6e6e6e6,0x1e1e1e1e3b3b3b3b,0xe9e9e9e9d9d9d9d9,0xf5f5f5f50d0d0d0d,0x2a2a2a2ad4d4d4d4,0xeeeeeeee37373737,0x282828281e1e1e1e,
 0xf1f1f1f1fbfbfbfb,0xb0b0b0b37373737,0x2c2c2c2cd3d3d3d3,0xecececec09090909,0x37373737f7f7f7f7,0xefefefeff9f9f9f9,0x1b1b1b1b04040404,
 0xeaeaeaea09090909,0x232323230f0f0f0f,0x1f1f1f1fb0b0b0b0,0xe6e6e6e6dadadada,0x1212121213131313,0x15151515e7e7e7e7,0xe5e5e5e5f5f5f5f5,
 0xeeeeeeeedcdcdcdc,0x2c2c2c2ce6e6e6e6,0x1d1d1d1dd6d6d6d6,0xf0f0f0ffdfdfdfd,0x1c1c1c1cfafafafa,0xc6c6c6c608080808,0xe0e0e0efefefefe,
 0xe4e4e4e4dadadada,0xf1f1f1f117171717,0x21212121c2c2c2c2,0xd9d9d9d9eaeaeaea,0xf3f3f3f308080808,0xd5d5d5d5cdcdcdcd,0xf5f5f5f5b0b0b0b0,
 0x8080808f0f0f0f0,0x1b1b1b1b50505050,0x121212122e2e2e2e,0xf4f4f4f4e6e6e6e6,0x14141414a6a6a6a6,0xb0b0b0bcececece,0x131313130c0c0c0c,
 0x22222222e9e9e9e9,0x1f1f1f1f1d1d1d1d,0x1c1c1c1c11111111,0x4c4c4c4cf5f5f5f5,0x1b1b1b1b14141414,0x42424242ffffffff,0xf4f4f4f42f2f2f2f,
 0x18181818c4c4c4c4,0xe5e5e5e5f2f2f2f2,0x2020202022222222,0x1717171735353535,0xe2e2e2e225252525,0x10101010d0d0d0d0,0x2525252525252525,
 0x202020202e2e2e2e,0xd9d9d9d939393939,0xf8f8f8f8edededed,0xe0e0e0e0f8f8f8f8,0x1212121218181818,0xeeeeeeee5d5d5d5d,0xd3d3d3d317171717,
 0x31313131f4f4f4f4,0x2a2a2a2aecececec,0xf3f3f3f3e0e0e0e0,0xddddddddf8f8f8f8,0xe9e9e9e9efefefef,0xf0f0f0ff5f5f5f5,0x1313131313131313,
 0xdfdfdfdfefefefef,0xdbdbdbdbdcdcdcdc,0xfefefefe0f0f0f0f,0x1111111116161616,0xc5c5c5c5e6e6e6e6,0xb0b0b0be2e2e2e2,0xd0d0d0d1b1b1b1b,
 0xf7f7f7f7d8d8d8d8,0xc3c3c3c3fdfdfdfd,0xeeeeeeee07070707,0x909090912121212,0xd6d6d6d6fefefefe,0xd9d9d9d9e6e6e6e6,0x404040409090909,
 0xdbdbdbdb02020202,0xdededede0c0c0c0c,0xd9d9d9d91d1d1d1d,0xf1f1f1f1ffffffff,0x101010101b1b1b1b,0x8a8a8a8a24242424,0xe2e2e2e22d2d2d2d,
 0x1b1b1b1b0e0e0e0e,0x383838387b7b7b7b,0x707070730303030,0xe3e3e3e317171717,0xa7a7a7a7ebebebeb,0x9090909c7c7c7c7,0x1c1c1c1c11111111,
 0xf5f5f5f535353535,0xc0c0c0cd7d7d7d7,0x353535350e0e0e0e,0x2a2a2a2a14141414,0x1212121204040404,0xd2d2d2d2e7e7e7e7,0x8080808dcdcdcdc,
 0x1f1f1f1fe5e5e5e5,0x11111111c1c1c1c1,0xe2e2e2e2e7e7e7e7,0x7070707d8d8d8d8,0xe7e7e7e71f1f1f1f,0xf0f0f0f01c1c1c1c,0xdfdfdfdf11111111,
 0x212121210f0f0f0f,0xcececece1d1d1d1d,0xf2f2f2f222222222,0x505050528282828,0xd8d8d8d8fefefefe,0x29292929f2f2f2f2,0x10101010fcfcfcfc,
 0xd4d4d4d40a0a0a0a,0xd2d2d2d202020202,0xd5d5d5d50b0b0b0b,0x14141414f3f3f3f3,0xddddddddfafafafa,0x2626262614141414,0xddddddddefefefef,
 0x2b2b2b2be6e6e6e6,0x2a2a2a2af8f8f8f8,0x47474747f7f7f7f7,0x15151515cfcfcfcf,0xe9e9e9e926262626,0x10101010eeeeeeee,0xd5d5d5d5bdbdbdbd,
 0x2e2e2e2e3b3b3b3b,0x1919191909090909,0x10101010f1f1f1f1,0x3e3e3e3e1d1d1d1d,0xc6c6c6c60a0a0a0a,0xf2f2f2f2e1e1e1e1,0xc5c5c5c514141414,
 0x10101011c1c1c1c,0x2222222221212121,0x3030303018181818,0xecececece7e7e7e7,0xf7f7f7f737373737,0x1c1c1c1c19191919,0xd0d0d0deaeaeaea,
 0xbfbfbfbf20202020,0x6060606dededede,0xecececec03030303,0x2020202eaeaeaea,0xb0b0b0b29292929,0x1616161614141414,0xe0e0e0e02e2e2e2e,
 0x26262626dddddddd,0xdcdcdcdc19191919,0xf0f0f0f0efefefef,0xdbdbdbdbbdbdbdbd,0xcfcfcfcfebebebeb,0x7070707f4f4f4f4,0x2929292956565656,
 0x2f2f2f2ff7f7f7f7,0x1d1d1d1d50505050,0xf8f8f8f81a1a1a1a,0x16161616d6d6d6d6,0xf2f2f2f241414141,0x3f3f3f3fe0e0e0e0,0x2020202d2d2d2d2,
 0x24242424d7d7d7d7,0x202020229292929,0xe0e0e0efbfbfbfb,0x12121212fbfbfbfb,0xfefefefee3e3e3e3,0xfefefefed8d8d8d8,0xe0e0e0e41414141,
 0xb0b0b0b0a0a0a0a,0xf8f8f8f822222222,0xb8b8b8b8fbfbfbfb,0x23232323f8f8f8f8,0xf1f1f1f1f9f9f9f9,0xd8d8d8d858585858,0xe9e9e9e90c0c0c0c,
 0x1a1a1a1a16161616,0xe8e8e8e8eeeeeeee,0x11111111f7f7f7f7,0xc0c0c0c01010101,0xa7a7a7a7e4e4e4e4,0x21212121fefefefe,0xe9e9e9e9d9d9d9d9,
 0xe8e8e8e80c0c0c0c,0xfdfdfdfd79797979,0xd4d4d4d4f9f9f9f9,0xc7c7c7c706060606,0xffffffffe8e8e8e8,0x10101010e1e1e1e1,0xc0c0c0c0e7e7e7e7,
 0xf0f0f0f009090909,0xf6f6f6f6e6e6e6e6,0x16161616ecececec,0xe2e2e2e24f4f4f4f,0x3737373706060606,0x1c1c1c1c21212121,0xd8d8d8d837373737,
 0xe4e4e4e4edededed,0xe3e3e3e30d0d0d0d,0xe0e0e0ed3d3d3d3,0xd7d7d7d72f2f2f2f,0xf1f1f1f1fbfbfbfb,0x1a1a1a1af1f1f1f1,0xe4e4e4e40b0b0b0b,
 0x18181818f0f0f0f0,0x3232323215151515,0xd0d0d0dfdfdfdfd,0x9090909cececece,0xfdfdfdfd18181818,0x2e2e2e2ed1d1d1d1,0xdfdfdfdfd1d1d1d1,
 0xefefefeff8f8f8f8,0x202020221212121,0xededededd9d9d9d9,0x11111111ecececec,0xf5f5f5f50a0a0a0a,0xf2f2f2f20e0e0e0e,0x3535353506060606,
 0xdadadadac9c9c9c9,0xe2e2e2e21e1e1e1e,0xf9f9f9f926262626,0xf9f9f9f9dededede,0xa0a0a0a14141414,0x1c1c1c1ce4e4e4e4,0x9090909fbfbfbfb,
 0xe2e2e2e204040404,0x21212121ecececec,0xfafafafa3a3a3a3a,0x606060607070707,0x18181818dadadada,0xfbfbfbfbe2e2e2e2,0x131313139f9f9f9f,
 0x1e1e1e1e05050505,0x1111111112121212,0xb0b0b0bc1c1c1c1,0xd0d0d0d2c2c2c2c,0x333333330b0b0b0b,0xe2e2e2e215151515,0x29292929fbfbfbfb,
 0xf0f0f0f0fafafafa,0x707070780808080,0x2525252507070707,0x1e1e1e1e19191919,0xe9e9e9e90f0f0f0f,0xfbfbfbfbe8e8e8e8,0xd4d4d4d4e2e2e2e2,
 0x5050505eeeeeeee,0xfdfdfdfddddddddd,0xf0f0f0f0e7e7e7e7,0xdfdfdfdfedededed,0xfffffffff4f4f4f4,0x1f1f1f1febebebeb,0xe3e3e3e3e9e9e9e9,
 0xf9f9f9f9d1d1d1d1,0x22222222f1f1f1f1,0xf8f8f8f8e9e9e9e9,0xe6e6e6e6f0f0f0f0,0xfafafafa0b0b0b0b,0x898989891e1e1e1e,0x101010103a3a3a3a,
 0x2020202007070707,0x3c3c3c3cf9f9f9f9,0xf4f4f4f4eaeaeaea,0xf3f3f3f3f4f4f4f4,0xc2c2c2c2d3d3d3d3,0x5050505001010101,0x14141414dadadada,
 0xefefefefe8e8e8e8,0x1e1e1e1e18181818,0xe9e9e9e921212121,0x919191915e5e5e5e,0xf8f8f8f814141414,0xfdfdfdfd13131313,0xececececdddddddd,
 0x8080808e7e7e7e7,0xf3f3f3f331313131,0xc0c0c0ce4e4e4e4,0x8080808e7e7e7e7,0xd6d6d6d6f7f7f7f7,0xf9f9f9f9f9f9f9f9,0xefefefef35353535,
 0x121212120c0c0c0c,0xa0a0a0a1f1f1f1f,0x1010101001010101,0xdedededeffffffff,0xfefefefe01010101,0xe4e4e4e401010101,0x15151515ffffffff,
 0x33333333ffffffff,0xf2f2f2f2ffffffff,0x13131313ffffffff,0x1c1c1c1c01010101,0x1010101ffffffff,0xdcdcdcdcffffffff,0x2f2f2f2fffffffff,
 0xececececffffffff,0xffffffff01010101,0xf2f2f2f2ffffffff,0xe5e5e5e501010101,0x34343434f9f9f9f9,0xcbcbcbcbcececece,0x1818181823232323,
 0xe0e0e0e19191919,0x4545454517171717,0xd5d5d5d51d1d1d1d,0x19191919eeeeeeee,0xf4f4f4f41a1a1a1a,0xd0d0d0d0d0d0d0d,0xefefefefe0e0e0e0,
 0x2d2d2d2d1f1f1f1f,0xe0e0e0e1b1b1b1b,0xdfdfdfdf26262626,0x1717171718181818,0x2323232323232323,0xa2a2a2a2dfdfdfdf,0x26262626f6f6f6f6,
 0x3f3f3f3fc2c2c2c2,0x28282828bfbfbfbf,0xf2f2f2f2fbfbfbfb,0xf4f4f4f4f2f2f2f2,0x2020202f5f5f5f5,0xe4e4e4e417171717,0xe6e6e6e601010101,
 0xedededed1c1c1c1c,0x7070707e7e7e7e7,0x16161616a2a2a2a2,0x2e2e2e2ed2d2d2d2,0xf8f8f8f8fbfbfbfb,0x20202020e0e0e0e,0xd0d0d0dfafafafa,
 0xf0f0f0ffcfcfcfc,0xf9f9f9f90f0f0f0f,0xfdfdfdfd03030303,0xc0c0c0c0d0d0d0d,0x1010101017171717,0x2121212109090909,0x10101011f1f1f1f,
 0xc0c0c0c08080808,0xf8f8f8f819191919,0x3131313116161616,0x26262626,0x1515151522222222,0x3c3c3c3c0e0e0e0e,0x1414141405050505,
 0xd1d1d1d116161616,0x3f3f3f3f05050505,0xe7e7e7e723232323,0xb5b5b5b50b0b0b0b,0xfafafafabdbdbdbd,0xfdfdfdfdc9c9c9c9,0xa0a0a0ab7b7b7b7,
 0xfbfbfbfbffffffff,0xb0b0b0b28282828,0xf4f4f4f446464646,0xe5e5e5e5efefefef,0xd2d2d2d2eeeeeeee,0x2020202f1f1f1f1,0xf0f0f0ffbfbfbfb,
 0x24242424c5c5c5c5,0xd0d0d0decececec,0xf1f1f1f11c1c1c1c,0xe6e6e6e60d0d0d0d,0xe5e5e5e513131313,0xd0d0d0ddcdcdcdc,0xdededede0b0b0b0b,
 0x1111111135353535,0xbbbbbbbbb1b1b1b1,0xececececc4c4c4c4,0xcbcbcbcb14141414,0x27272727c4c4c4c4,0xfdfdfdfd13131313,0xdbdbdbdbcececece,
 0x242424241b1b1b1b,0xffffffff3a3a3a3a,0xdededede05050505,0xfdfdfdfdfdfdfdfd,0xf7f7f7f726262626,0xd3d3d3d3f0f0f0f0,0x33333333d1d1d1d1,
 0x9090909e2e2e2e2,0xf3f3f3f3fcfcfcfc,0x22222222dededede,0xf1f1f1f1e2e2e2e2,0xfefefefef4f4f4f4,0x11111111f4f4f4f4,0x101010103030303,
 0xf5f5f5f5fdfdfdfd,0xe1e1e1e1fafafafa,0xf3f3f3f319191919,0xcfcfcfcf02020202,0xedededed08080808,0xd8d8d8d803030303,0xebebebeb27272727,
 0xfdfdfdfd0d0d0d0d,0xf5f5f5f513131313,0xf2f2f2f220202020,0xffffffff17171717,0x1f1f1f1f02020202,0x707070702020202,0x2020202,
 0x6060606fbfbfbfb,0xfbfbfbfb03030303,0xbabababa0f0f0f0f,0xd1d1d1d1fafafafa,0xc4c4c4c4fefefefe,0x23232323f1f1f1f1,0xf9f9f9f9dfdfdfdf,
 0x28282828fdfdfdfd,0x4f4f4f4ff2f2f2f2,0x10101010e3e3e3e3,0x5656565602020202,0xd8d8d8d8f4f4f4f4,0xf6f6f6f6e1e1e1e1,0xd9d9d9d9f9f9f9f9,
 0x1a1a1a1a01010101,0x1111111114141414,0xb0b0b0bf9f9f9f9,0xd4d4d4d414141414,0x94949494f9f9f9f9,0xe5e5e5e5dddddddd,0xd0d0d0d0c0c0c0c,
 0xf5f5f5f5cfcfcfcf,0x10101010dadadada,0xf0f0f0f01f1f1f1f,0x87878787cfcfcfcf,0xdfdfdfdf24242424,0x2626262633333333,0x15151515b0b0b0b0,
 0x1b1b1b1b28282828,0xedededed0f0f0f0f,0xefefefefc1c1c1c1,0xa0a0a0afefefefe,0xe6e6e6e6d0d0d0d0,0xf6f6f6f662626262,0xf5f5f5f5cccccccc,
 0xf5f5f5f5fefefefe,0x10101010,0xebebebebfcfcfcfc,0xe2e2e2e22c2c2c2c,0xfbfbfbfbffffffff,0xf2f2f2f226262626,0xcececececfcfcfcf,
 0xebebebebdddddddd,0xd6d6d6d6c6c6c6c6,0x909090900000000,0xdcdcdcdc23232323,0xb0b0b0b09090909,0x11111111efefefef,0xddddddddf5f5f5f5,
 0x4040404e9e9e9e9,0xe2e2e2e2dfdfdfdf,0xd2d2d2d2e3e3e3e3,0xcacacacadfdfdfdf,0x20202020a0a0a0a,0xfdfdfdfd12121212,0xfafafafaffffffff,
 0xf2f2f2f20f0f0f0f,0xf4f4f4f4f9f9f9f9,0xf4f4f4f409090909,0x2c2c2c2cf7f7f7f7,0x1a1a1a1af1f1f1f1,0x11111111eeeeeeee,0x7070707ebebebeb,
 0xb0b0b0befefefef,0x6060606f0f0f0f0,0xc8c8c8c8edededed,0xf0f0f0f0dadadada,0xcdcdcdcdeeeeeeee,0x46464646d2d2d2d2,0xe0e0e0e016161616,
 0xd4d4d4d409090909,0x2b2b2b2b1b1b1b1b,0x2c2c2c2c0e0e0e0e,0xc8c8c8c815151515,0x1616161609090909,0x303030313131313,0xe3e3e3e317171717,
 0x14141414f4f4f4f4,0x4242424200000000,0xfafafafaa1a1a1a1,0x1f1f1f1f2d2d2d2d,0x303030303b3b3b3b,0x141414141a1a1a1a,0xefefefeff9f9f9f9,
 0x1a1a1a1af6f6f6f6,0xe9e9e9e9e9e9e9e9,0x1c1c1c1ce9e9e9e9,0x2222222202020202,0xe9e9e9e916161616,0x2b2b2b2be3e3e3e3,0x1a1a1a1ae9e9e9e9,
 0x1d1d1d1d14141414,0xf5f5f5f5dcdcdcdc,0x8080808d7d7d7d7,0xdddddddd3a3a3a3a,0xd3d3d3d308080808,0xe0e0e0e0efefefef,0xd1d1d1d1edededed,
 0xf6f6f6f60a0a0a0a,0x9090909,0xefefefefe9e9e9e9,0x131313131f1f1f1f,0xf0f0f0f15151515,0x1616161624242424,0x1010101eeeeeeee,
 0x101010108080808,0x8080808f1f1f1f1,0x2020202e5e5e5e5,0xfefefefe15151515,0x80808080c0c0c0c,0xd0d0d0de8e8e8e8,0x13131313fefefefe,
 0x38383838f5f5f5f5,0x1d1d1d1d08080808,0x12121212eaeaeaea,0x11111111fafafafa,0x17171717efefefef,0xe0e0e0eeaeaeaea,0xfafafafaebebebeb,
 0x8080808f0f0f0f0,0xefefefefe5e5e5e5,0x9090909dfdfdfdf,0xf0f0f0f0f9f9f9f9,0xcfcfcfcfefefefef,0xf0f0f0f0fafafafa,0xfdfdfdfd,
 0x2020202e3e3e3e3,0xe0e0e0e0fafafafa,0xfbfbfbfb05050505,0x1f1f1f1fc0c0c0c0,0x12121212fcfcfcfc,0x2a2a2a2a,0x1e1e1e1e,0x1a1a1a1a,0x1010101,
 0xadadadad,0xffffffff,0x3030303,0x33333333,0x6060606,0xf6f6f6f605050505,0xebebebebd8d8d8d8,0xf4f4f4f40c0c0c0c,0xfafafafa07070707,
 0xfbfbfbfbf8f8f8f8,0xf7f7f7f701010101,0xefefefef2e2e2e2e,0xf6f6f6f680808080,0xeaeaeaea1f1f1f1f,0xf4f4f4f438383838,0xb0b0b0b48484848,
 0xf5f5f5f52b2b2b2b,0x15151515e1e1e1e1,0x121212124a4a4a4a,0x1a1a1a1ac7c7c7c7,0xc0c0c0cb3b3b3b3,0xf1f1f1f1a9a9a9a9,0x4040404dddddddd,
 0x2828282818181818,0x40404040e8e8e8e8,0x1111111104040404,0x2e2e2e2ef5f5f5f5,0x2b2b2b2bfdfdfdfd,0x1c1c1c1cffffffff,0xc8c8c8c829292929,
 0xeaeaeaea2c2c2c2c,0xd0d0d0d02e2e2e2e,0xfafafafa12121212,0x19191919fdfdfdfd,0xe5e5e5e517171717,0x262626260d0d0d0d,0x383838380f0f0f0f,
 0x70707070f0f0f0f,0xe0e0e0e27272727,0x505050519191919,0x90909092a2a2a2a,0xd0d0d0d0f4f4f4f4,0xfdfdfdfdf0f0f0f0,0xd4d4d4d4efefefef,
 0xecececec2c2c2c2c,0xfcfcfcfc64646464,0xf6f6f6f61e1e1e1e,0xb0b0b0bf6f6f6f6,0xf8f8f8f8efefefef,0xa0a0a0afcfcfcfc,0xf0f0f0f0d2d2d2d2,
 0x5050505dfdfdfdf,0xf1f1f1f1f5f5f5f5,0x2e2e2e2ed2d2d2d2,0x12121212d4d4d4d4,0xf2f2f2f2f3f3f3f3,0x1c1c1c1c3c3c3c3c,0xd0d0d0d0f0f0f0f,
 0x1414141433333333,0xeeeeeeee1e1e1e1e,0xf9f9f9f92d2d2d2d,0xf1f1f1f123232323,0xfafafafaf5f5f5f5,0xfbfbfbfb1d1d1d1d,0x2020202f3f3f3f3,
 0x47474747ffffffff,0x17171717c7c7c7c7,0x41414141f6f6f6f6,0xf3f3f3f30e0e0e0e,0xe8e8e8e8dfdfdfdf,0x1212121224242424,0x101010106060606,
 0xb3b3b3b30e0e0e0e,0x16161616e1e1e1e1,0xc5c5c5c5cfcfcfcf,0x16161616d0d0d0d0,0xdcdcdcdcfdfdfdfd,0xf2f2f2f204040404,0x5050505e8e8e8e8,
 0xe7e7e7e70d0d0d0d,0xb4b4b4b4,0xe6e6e6e6bfbfbfbf,0xe7e7e7e708080808,0xfafafafa27272727,0x2d2d2d2d0f0f0f0f,0xdadadadafbfbfbfb,
 0x2727272720202020,0x14141414aaaaaaaa,0x4a4a4a4aebebebeb,0x4040404e5e5e5e5,0x2e2e2e2ee8e8e8e8,0xacacacac2a2a2a2a,0x2e2e2e2e2c2c2c2c,
 0x1b1b1b1bdddddddd,0xd0d0d0d0e8e8e8e8,0xf2f2f2f219191919,0xafafafaf9a9a9a9a,0x4545454528282828,0x292929290f0f0f0f,0xc3c3c3c310101010,
 0xcdcdcdcd2a2a2a2a,0xcecececed3d3d3d3,0xececececf0f0f0f0,0x4b4b4b4bf1f1f1f1,0xececececa5a5a5a5,0xedededed0a0a0a0a,0xababababe5e5e5e5,
 0xeeeeeeee20202020,0xe4e4e4e4edededed,0xd6d6d6d619191919,0xbcbcbcbc29292929,0xd7d7d7d700000000,0xf4f4f4f4e0e0e0e0,0xcececece26262626,
 0x5050505e1e1e1e1,0xececececd9d9d9d9,0x12121212,0xe5e5e5e5c1c1c1c1,0xa0a0a0adddddddd,0xfefefefe15151515,0xf1f1f1f11a1a1a1a,
 0xe5e5e5e520202020,0xe1e1e1e1fefefefe,0x6161616126262626,0x10101010d4d4d4d4,0xcdcdcdcd09090909,0xdfdfdfdfe6e6e6e6,0xcfcfcfcffdfdfdfd,
 0xd0d0d0d0e7e7e7e7,0xf5f5f5f530303030,0xeaeaeaea9b9b9b9b,0x1010101003030303,0x22222222b0b0b0b0,0xf0f0f0f03b3b3b3b,0x14141414d7d7d7d7,
 0xdbdbdbdbdadadada,0xefefefefe1e1e1e1,0xf6f6f6f629292929,0xf5f5f5f5e5e5e5e5,0xdbdbdbdb24242424,0xd7d7d7d7efefefef,0x33333333cbcbcbcb,
 0xd0d0d0d1a1a1a1a,0xb8b8b8b802020202,0xf3f3f3f3fdfdfdfd,0x1c1c1c1cd9d9d9d9,0xe4e4e4e420202020,0x25252525edededed,0xefefefef08080808,
 0xdadadadabebebebe,0xd3d3d3d3b2b2b2b2,0xd0d0d0d31313131,0xc0c0c0c1c1c1c1c,0xebebebeb20202020,0xd2d2d2d2dddddddd,0xd7d7d7d74b4b4b4b,
 0xc9c9c9c942424242,0xdfdfdfdfe7e7e7e7,0x27272727d7d7d7d7,0x20202020cdcdcdcd,0x3030303cececece,0xb6b6b6b62c2c2c2c,0xe1e1e1e106060606,
 0xdcdcdcdce5e5e5e5,0xe9e9e9e902020202,0xf9f9f9f9b2b2b2b2,0xf4f4f4f409090909,0x29292929afafafaf,0x1c1c1c1c18181818,0xf7f7f7f705050505,
 0xc7c7c7c710101010,0xd0d0d0d31313131,0x4a4a4a4af4f4f4f4,0x5050505fcfcfcfc,0xfefefefee9e9e9e9,0xadadadadfbfbfbfb,0xd9d9d9d921212121,
 0xa0a0a0acacacaca,0xeaeaeaeac7c7c7c7,0xf4f4f4f418181818,0x3333333313131313,0x161616160e0e0e0e,0xa9a9a9a9eaeaeaea,0x3030303e2e2e2e2,
 0x14141414f6f6f6f6,0xf1f1f1f116161616,0xdfdfdfdfd6d6d6d6,0xefefefefefefefef,0xd6d6d6d60a0a0a0a,0x1010101d2d2d2d2,0xefefefefd7d7d7d7,
 0x2a2a2a2af7f7f7f7,0xf9f9f9f901010101,0x88888888bfbfbfbf,0x26262626e3e3e3e3,0x5050505edededed,0xf2f2f2f2f2f2f2f2,0x151515159b9b9b9b,
 0xe0e0e0ef2f2f2f2,0xfcfcfcfc01010101,0x2f2f2f2fdddddddd,0xe7e7e7e7fbfbfbfb,0xfefefefef7f7f7f7,0x13131313cbcbcbcb,0xe1e1e1e1fbfbfbfb,
 0xbbbbbbbbebebebeb,0xe6e6e6e637373737,0x101010110101010,0xc0c0c0c0b5b5b5b5,0xecececec07070707,0xbebebebee4e4e4e4,0xdcdcdcdc08080808,
 0xcccccccc01010101,0x1f1f1f1ff1f1f1f1,0x1a1a1a1ae4e4e4e4,0x3333333320202020,0x151515150d0d0d0d,0xffffffffbcbcbcbc,0xc3c3c3c346464646,
 0xccccccccd3d3d3d3,0x1f1f1f1f40404040,0x16161616e9e9e9e9,0xc4c4c4c42e2e2e2e,0x1c1c1c1ce5e5e5e5,0xeeeeeeeeb9b9b9b9,0xe1e1e1e102020202,
 0x24242424f0f0f0f0,0x60606062c2c2c2c,0xdcdcdcdc2a2a2a2a,0x2222222203030303,0x17171717fbfbfbfb,0xb8b8b8b81c1c1c1c,0x8080808dededede,
 0xcfcfcfcfeaeaeaea,0x30303030fcfcfcfc,0xd0d0d0d037373737,0x4040404e9e9e9e9,0xe1e1e1e1f3f3f3f3,0xf9f9f9f9dddddddd,0xf4f4f4f415151515,
 0x2323232380808080,0xafafafafe5e5e5e5,0xd5d5d5d52e2e2e2e,0xdedededee2e2e2e2,0xc5c5c5c553535353,0xd4d4d4d435353535,0xf3f3f3f3f9f9f9f9,
 0x8080808d0d0d0d0,0x1010101f6f6f6f6,0xf0f0f0f20202020,0xfafafafa19191919,0x17171717f0f0f0f0,0x18181818fdfdfdfd,0x303030328282828,
 0xb4b4b4b404040404,0xf3f3f3f321212121,0xbdbdbdbd36363636,0xd0d0d0d0,0x33333333dadadada,0x1d1d1d1ddddddddd,0xc0c0c0cacacacac,
 0xf7f7f7f735353535,0xe0e0e0e031313131,0x27272727edededed,0x1a1a1a1a15151515,0x272727270b0b0b0b,0xafafafaf05050505,0x3434343408080808,
 0xefefefef57575757,0xc6c6c6c62d2d2d2d,0x19191919c0c0c0c0,0x353535351f1f1f1f,0xf9f9f9f9dfdfdfdf,0xd6d6d6d621212121,0xc0c0c0cf7f7f7f7,
 0xf4f4f4f4bdbdbdbd,0xe4e4e4e40a0a0a0a,0x42424242eeeeeeee,0x2a2a2a2a33333333,0x1d1d1d1d9e9e9e9e,0x161616160b0b0b0b,0xcccccccc1d1d1d1d,
 0x14141414c4c4c4c4,0x1212121201010101,0xd0d0d0de6e6e6e6,0xf5f5f5f50e0e0e0e,0x3737373709090909,0xd2d2d2d2d4d4d4d4,0xfffffffff0f0f0f0,
 0x1818181815151515,0xb0b0b0b0cccccccc,0xfcfcfcfcf9f9f9f9,0xe0e0e0efbfbfbfb,0x707070712121212,0xf3f3f3f31b1b1b1b,0x30303030b6b6b6b6,
 0xbabababa04040404,0xf0f0f0f11111111,0xddddddddf3f3f3f3,0x2a2a2a2a0b0b0b0b,0xd6d6d6d6ecececec,0x2a2a2a2a1e1e1e1e,0xe3e3e3e3dbdbdbdb,
 0x4a4a4a4ae4e4e4e4,0xc8c8c8c8e3e3e3e3,0xbcbcbcbcf3f3f3f3,0x1010101c0c0c0c0,0x3232323203030303,0x1f1f1f1f48484848,0xd0d0d0d009090909,
 0x2b2b2b2bedededed,0x3030303dededede,0xcbcbcbcbbdbdbdbd,0xf5f5f5f5dededede,0x2d2d2d2dfdfdfdfd,0x24242424f2f2f2f2,0xbabababaf1f1f1f1,
 0xe2e2e2e2ffffffff,0xf3f3f3f3e6e6e6e6,0x2f2f2f2ffafafafa,0x2c2c2c2cf9f9f9f9,0xc0c0c0c003030303,0x24242424f7f7f7f7,0xe2e2e2e2bcbcbcbc,
 0xdbdbdbdbe9e9e9e9,0xdbdbdbdb22222222,0xa9a9a9a9dfdfdfdf,0xfbfbfbfbfdfdfdfd,0xe3e3e3e3e8e8e8e8,0xf5f5f5f50d0d0d0d,0xe8e8e8e828282828,
 0x1d1d1d1d2e2e2e2e,0xf8f8f8f8e9e9e9e9,0x3030303f5f5f5f5,0xbdbdbdbd1b1b1b1b,0x13131313b8b8b8b8,0xfdfdfdfd12121212,0x8080808e7e7e7e7,
 0xd2d2d2d2bbbbbbbb,0xf0f0f0fbdbdbdbd,0x1a1a1a1afbfbfbfb,0x909090945454545,0x2828282814141414,0xe5e5e5e5e5e5e5e5,0x25252525e1e1e1e1,
 0x21212121fefefefe,0x232323230a0a0a0a,0xc3c3c3c32a2a2a2a,0x10101010f0f0f0f0,0x2c2c2c2cfcfcfcfc,0x1010101d8d8d8d8,0x2f2f2f2ff0f0f0f0,
 0xbbbbbbbbd4d4d4d4,0xf6f6f6f6d7d7d7d7,0x16161616e4e4e4e4,0x2828282808080808,0xe6e6e6e6bebebebe,0x1d1d1d1d18181818,0x282828282f2f2f2f,
 0xf8f8f8f81c1c1c1c,0xc4c4c4c4e0e0e0e0,0xf9f9f9f946464646,0x313131311a1a1a1a,0x2f2f2f2fd8d8d8d8,0xe2e2e2e22b2b2b2b,0xe7e7e7e71d1d1d1d,
 0x404040438383838,0x2c2c2c2cd4d4d4d4,0xfafafafa26262626,0x9696969632323232,0xd0d0d0d027272727,0x30303030d9d9d9d9,0xc0c0c0c0e3e3e3e3,
 0x3030303dbdbdbdb,0x18181818f7f7f7f7,0xe3e3e3e3ebebebeb,0x3232323224242424,0xf9f9f9f9e7e7e7e7,0xa0a0a0a17171717,0xd8d8d8d821212121,
 0x17171717,0x4141414130303030,0x4e4e4e4efafafafa,0xc0c0c0c0a9a9a9a9,0x2e2e2e2edadadada,0xd1d1d1d10a0a0a0a,0x121212122d2d2d2d,
 0x404040418181818,0xf5f5f5f5bfbfbfbf,0xe0e0e0e004040404,0x1b1b1b1b0d0d0d0d,0xd8d8d8d8f8f8f8f8,0xacacacace7e7e7e7,0x404040413131313,
 0xe8e8e8e8f7f7f7f7,0xd4d4d4d4d5d5d5d5,0xf7f7f7f7fdfdfdfd,0xf9f9f9f91a1a1a1a,0xf0f0f0f2a2a2a2a,0xcecececee5e5e5e5,0xf4f4f4f4dfdfdfdf,
 0x4040404cececece,0xd1d1d1d1fcfcfcfc,0x1c1c1c1c08080808,0xfafafafad2d2d2d2,0x404040401a1a1a1a,0x26262626eeeeeeee,0x1f1f1f1f05050505,
 0xababababbdbdbdbd,0xe7e7e7e7f0f0f0f0,0x12121212f4f4f4f4,0x12121212fdfdfdfd,0xdcdcdcdceeeeeeee,0xbcbcbcbc0b0b0b0b,0xf1f1f1f1d3d3d3d3,
 0x29292929c6c6c6c6,0x1f1f1f1fe6e6e6e6,0xa3a3a3a30d0d0d0d,0xe2e2e2e2d2d2d2d2,0x121212121d1d1d1d,0x3d3d3d3de8e8e8e8,0xc2c2c2c200000000,
 0x22222222c7c7c7c7,0xdfdfdfdff3f3f3f3,0xfbfbfbfbc9c9c9c9,0xe2e2e2e2f6f6f6f6,0x1c1c1c1c90909090,0xdbdbdbdb1f1f1f1f,0xf0f0f0fffffffff,
 0xb8b8b8b817171717,0xd9d9d9d9dcdcdcdc,0x2a2a2a2ad9d9d9d9,0xd5d5d5d5cececece,0xefefefefbbbbbbbb,0x2a2a2a2a2c2c2c2c,0x606060619191919,
 0xfefefefe33333333,0xfafafafa15151515,0xd1d1d1d132323232,0x1010101000000000,0xdadadadacccccccc,0x1e1e1e1e14141414,0xe4e4e4e42d2d2d2d,
 0xe7e7e7e727272727,0xe0e0e0e0fdfdfdfd,0xf0f0f0f26262626,0xe1e1e1e119191919,0x404040447474747,0xe7e7e7e7f6f6f6f6,0xccccccccc5c5c5c5,
 0xe4e4e4e42c2c2c2c,0x1f1f1f1f24242424,0xc0c0c0c01d1d1d1d,0xd3d3d3d3e5e5e5e5,0x11111111cececece,0xefefefefdadadada,0xf3f3f3f33e3e3e3e,
 0x1b1b1b1b19191919,0xcecececeedededed,0x35353535d0d0d0d0,0xd2d2d2d2d6d6d6d6,0x2b2b2b2bfefefefe,0x24242424e0e0e0e0,0x404040412121212,
 0x10101011c1c1c1c,0x1b1b1b1bcececece,0xccccccccb3b3b3b3,0xeaeaeaea14141414,0x3b3b3b3b0a0a0a0a,0x22222222abababab,0xa7a7a7a73b3b3b3b,
 0x11111111c0c0c0c0,0xe6e6e6e6f0f0f0f0,0x95959595fcfcfcfc,0x29292929d3d3d3d3,0x1616161604040404,0xe0e0e0e0d7d7d7d7,0x24242424fdfdfdfd,
 0xe0e0e0e036363636,0xd0d0d0dbfbfbfbf,0xdadadada06060606,0xd9d9d9d90a0a0a0a,0x1b1b1b1bd5d5d5d5,0xa7a7a7a716161616,0xf0f0f0f2d2d2d2d,
 0xd5d5d5d5c2c2c2c2,0x4747474731313131,0x3636363608080808,0x393939391a1a1a1a,0xfbfbfbfbb4b4b4b4,0xb5b5b5b5f1f1f1f1,0x20202020d3d3d3d3,
 0x2f2f2f2ffcfcfcfc,0xf0f0f0f1a1a1a1a,0x6060606aaaaaaaa,0x8080808e3e3e3e3,0xfcfcfcfc0d0d0d0d,0xe2e2e2e2ecececec,0xfbfbfbfbc0c0c0c0,
 0x141414140b0b0b0b,0x26262626d8d8d8d8,0x1f1f1f1ffcfcfcfc,0xafafafaf0b0b0b0b,0x707070702020202,0xb2b2b2b2f0f0f0f0,0xfefefefed7d7d7d7,
 0x373737370d0d0d0d,0xfcfcfcfcf1f1f1f1,0x1d1d1d1d,0xe1e1e1e1c5c5c5c5,0xcececece01010101,0x272727271b1b1b1b,0x5050505dfdfdfdf,
 0x595959590e0e0e0e,0xb5b5b5b5fdfdfdfd,0x43434343a9a9a9a9,0xc1c1c1c1fafafafa,0xebebebebf8f8f8f8,0x1e1e1e1e21212121,0x1a1a1a1adededede,
 0x17171717dadadada,0xd5d5d5d52c2c2c2c,0xf7f7f7f7e3e3e3e3,0x10101010f3f3f3f3,0x7b7b7b7bdcdcdcdc,0x36363636bfbfbfbf,0x14141414c6c6c6c6,
 0xe3e3e3e323232323,0x91919191dfdfdfdf,0xcececece26262626,0x13131313e0e0e0e0,0x8080808e2e2e2e2,0xfcfcfcfc0f0f0f0f,0xdcdcdcdc38383838,
 0x1a1a1a1a07070707,0xc4c4c4c4e0e0e0e0,0xe9e9e9e927272727,0xe3e3e3e3eeeeeeee,0xfbfbfbfb1a1a1a1a,0xcbcbcbcbf3f3f3f3,0xf1f1f1f1d6d6d6d6,
 0x15151515,0x1212121207070707,0xffffffffe9e9e9e9,0x707070723232323,0xd9d9d9d9c0c0c0c0,0xf0f0f0f0a3a3a3a3,0xeeeeeeee1a1a1a1a,
 0xb9b9b9b90c0c0c0c,0xd0d0d0d18181818,0x4040404a2a2a2a2,0x29292929e8e8e8e8,0xdbdbdbdb22222222,0xd6d6d6d6dfdfdfdf,0xa0a0a0affffffff,
 0x2020202016161616,0xdadadada12121212,0xd2d2d2d2e0e0e0e0,0xe0e0e0e0ecececec,0x16161616fafafafa,0xd4d4d4d4b4b4b4b4,0xd7d7d7d73a3a3a3a,
 0x5050505cfcfcfcf,0xa0a0a0a0f0f0f0f,0x4444444411111111,0xefefefefcacacaca,0xb9b9b9b920202020,0x3333333317171717,0xeeeeeeee1a1a1a1a,
 0xefefefef36363636,0xefefefef01010101,0xe0e0e0ebfbfbfbf,0xe2e2e2e220202020,0xfafafafa5e5e5e5e,0xe3e3e3e3cccccccc,0x191919192b2b2b2b,
 0xe4e4e4e411111111,0xf6f6f6f60e0e0e0e,0xd6d6d6d619191919,0xe7e7e7e7f9f9f9f9,0x12120e0ee9e91a1a,0x3f3f2222dbdb3838,0x3a3a1e1ef6f62525,
 0x1e1e2d2de4e42626,0x69694b4bc5c57474,0x57571c1ccfcf5555,0xf0f1b1bf8f81010,0x33330f0fd4d44949,0x2b2bfdfddddd3737,0xf6f61d1decec1f1f,
 0xdcdc3232dddd5050,0xdfdf2121e6e63d3d,0xd6d62323e0e02828,0xbfbf4e4ebfbf6161,0xcfcf3535d6d64f4f,0xebeb0505fbfb2222,0xcdcd3535bebe2a2a,
 0xe1e12d2dd0d01818,0xdfdff7f71e1edbdb,0xd1d1dada2626cfcf,0xe7e7e9e90c0cbcbc,0xd5d5e8e829290404,0xa0a0bebe52520505,0xc3c3d4d43c3c1e1e,
 0xe2e2e5e50e0e0202,0xbdbdcfcf37374040,0xd5d5e9e932323333,0xf7f71a1a2121efef,0xcfcf14143535d6d6,0xc8c8c1c11a1adddd,0xc0c1a1a2323d0d0,
 0xbaba09094e4eafaf,0xceced7d73434c7c7,0xf0f01a1a0d0de0e0,0xb9b917172c2cc4c4,0xc0c0cece2020d7d7,0xececfffff3f3e8e8,0xbdbdffffbfbfb8b8,
 0xcaca0000ccccd4d4,0xdede0000dadae1e1,0x909000008f8f8e8e,0xadad0000acacacac,0xddddfefee0e0efef,0xc3c3ffffbebec7c7,0xd7d7ffffd1d1cfcf,
 0x181824242d2ddfdf,0x30302a2a4343c9c9,0x2e2e09091717cdcd,0x20202e2e0f0ff0f0,0x4a4a50504747bbbb,0x3e3e32321c1cc6c6,0x222212120e0ef3f3,
 0x2c2c38383535cccc,0x1d1d34342e2ed3d3,0xf7f71414ebeb1111,0x30303232c6c62929,0x38382727dbdb3232,0x1e1e2424d2d21616,0x48484d4dbbbb7070,
 0x32323535c2c25151,0x34341414f1f11e1e,0x34342a2ad2d25959,0xfefe1b1bcfcf3232,0x1f1ff9f9eded0808,0x3c3cc3c3e4e42525,0x1f1fcbcbdcdc2e2e,
 0x2323dadac6c61313,0x53539a9aaeae6262,0x4545ababc2c25a5a,0x101f3f3dfdf1010,0x2d2dcfcfc7c74747,0x3636d8d8d0d03737,0x3031111e4e4ffff,
 0xd7d72a2accccd9d9,0xcdcd2626dddddcdc,0xfbfb1818dadaebeb,0xa9a95b5bb6b6aeae,0xb3b33f3fccccc1c1,0xe4e41919e8e8f8f8,0xa9a93f3fd4d4e0e0,
 0xb7b73f3fe7e7f9f9,0xefefe5e5e9e9f0f0,0xd1d1c1c1cbcbd6d6,0xdede2929dfdfe0e0,0xcfcffdfde7e7cece,0xa1a1c2c2aeaebbbb,0xbaba3d3dc7c7c3c3,
 0xe5e5ececf8f8f1f1,0xc2c2bbbbd0d0cece,0xd5d53030d7d7dddd,0x19191b1b23231010,0x3636343440402929,0x202044442c2c2424,0x2424303020202a2a,
 0x56567b7b54545858,0x4444747440404b4b,0x101029291f1f1414,0x343443433b3b3636,0x2c2c42422b2b2929,0x909111113130c0c,0x454535355d5d3a3a,
 0x393927274a4a3030,0x10101b1b2b2b1a1a,0x6b6b61612e2e5858,0x4e4e4b4b28284545,0x3030909bcbc1919,0x33333f3f80803636,0x2b2b3b3b92922020,
 0x1414edede9e90f0f,0x2e2ecacac7c73a3a,0x2525e6e6d3d33232,0x2d2df3f3e3e33636,0x4c4cc0c0c2c26b6b,0x3434cbcbcece4949,0x1c1ceeeef0f01b1b,
 0x3a3ae3e3dada4242,0x1f1ff0f0e1e13636,0xededd2d2cdcd2626,0xd3d3b5b589895050,0xe1e1b9b9aaaa3131,0xe4e4ececfefe2424,0xbcbc979730306060,
 0xcccca8a83e3e5151,0xfafae9e91a1a1010,0xcecebcbc3e3e1a1a,0xcbcbc5c528282f2f,0xf0f023231515f3f3,0xd5d53a3a3a3ad3d3,0xf0f01f1f2b2be0e0,
 0xe2e223232727d6d6,0xb5b559596e6eb8b8,0xcece3f3f4949cccc,0xebeb19192222e2e2,0xcbcb41414545cbcb,0xd6d62a2a3c3ce2e2,0x1010f1f1f3f30000,
 0x3c3ce1e1e0e00000,0x3535edede0e0ffff,0x2828cfcfdfdf0000,0x6868a6a6b8b80101,0x5151c2c2d3d30202,0x1f1fecece4e4ffff,0x4d4dd5d5c7c7ffff,
 0x3131e2e2e2e20000,0x101e7e7efefd5d5,0x1313f2f2cecee5e5,0xe7e7ddddc1c11010,0x1c1cc2c20f0f1616,0xf0f1515d3d3ebeb,0xf1f1e4e4eeeed9d9,
 0xf6f65e5e13132626,0x2222d8d818182d2d,0xd2d2e7e7f3f3d6d6,0x12122222ffff1818,0xd2d2262631310505,0x24241c1cd7d7f0f0,0xe0e1f1fdfdff4f4,
 0xcfcfe8e840402525,0x1d1de3e3e1e11c1c,0x3030242409090707,0xf5f515150d0d1111,0xfafa0101e3e3c9c9,0xe0e0303cbcb2727,0xcaca0d0dd7d7f1f1,
 0x1e1e1b1bececa7a7,0xfefe03030b0b0000,0x23231111cfcfeeee,0xcfcf0303eded1515,0xeaeafefef5f51c1c,0xe6e61c1c2a2af3f3,0xf4f40e0efcfc2020,
 0xd2d2f5f51616e1e1,0xd3d30404e3e33737,0xfefef2f21c1c2b2b,0x1d1df1f131314040,0xdbdb01011d1de9e9,0xe1e1f9f908080202,0x3d3dfbfbe0e0c4c4,
 0x212119190101f7f7,0xcecededee1e10000,0x4848e5e509090505,0xdddd4343e1e11818,0x1d1dffff1515f0f0,0xeeeee7e7f1f13131,0x151521210808fbfb,
 0x1d1d0b0b1515ffff,0xf1f1d7d7f3f30909,0xf4f4d2d20f0f2f2f,0x909e5e50f0fe4e4,0xbaba303008081414,0xf5f5080814140808,0xe9e9e3e30f0f1111,
 0xeaea2525f2f20303,0x1616ffff0f0f1515,0x18180202d4d40e0e,0xd0d1c1cddddc0c0,0xe6e61515f8f8d3d3,0xbdbd181803034141,0x21210909dbdb4444,
 0xd8d8fafa1c1cc9c9,0x21211b1be0e01a1a,0xc0c00e0efefec8c8,0x1e1e2424c7c72323,0xf9f9c0c0e2e24545,0x606f2f224241313,0xededf7f7fafa2424,
 0x3535ecec48481e1e,0x404e4e40d0ddbdb,0xf1f1ebeb0000f7f7,0xf8f8d5d5e3e30a0a,0xe8e8f0f0e7e70303,0xf0f022220202ffff,0xe9e9e5e50303d2d2,
 0x20202828e8e82020,0x1818ededebeb2020,0x70708083434abab,0xe0e007073d3de9e9,0x1818fcfccece0a0a,0xe4e4ededfefe1111,0xf7f7dedee3e3,
 0x18181c1ce6e60505,0x404f2f2f4f4fafa,0x1011e1ecaca1b1b,0xe6e6f0f02828d2d2,0xf9f93d3d14141111,0xffff0e0ef6f60101,0x232320201818f4f4,
 0xf3f3eeee10103a3a,0x909161605050e0e,0xf5f5171705051717,0xe3e3e9e919190404,0x11114b4bdbdbf9f9,0xe0ef1f11c1c0808,0x606e7e70606e9e9,
 0xc0cdedefafafdfd,0x303e1e1ecec0c0c,0x707f4f4f4f4ffff,0xdfdfd5d520200e0e,0x2f2f0e0ee4e4fefe,0xf6f64b4b1818e7e7,0x1c1c0707ececdbdb,
 0xeded2b2b1d1de8e8,0xfafa8080d5d5fefe,0xe6e613131212fbfb,0x1f1f00002323efef,0x2121141417172424,0xeaea0303d1d10101,0xcdcdffff59591e1e,
 0xdfdf2020fdfddede,0xe8e8ddddededeeee,0x30302f2f1515e7e7,0x101f1f11a1a2323,0x7070d0d0a0ae0e0,0x1b1b08081a1ae7e7,0xf7f7f7f706061d1d,
 0x1d1d0404f0f0dede,0x1e1ec8c80c0c0e0e,0xeeeed8d81414eaea,0xf7f716162c2c1111,0xfbfb31313a3a0202,0x101d8d827271f1f,0x1d1d2222eeeeefef,
 0xf7f7f6f6cbcbefef,0xf8f806061919eded,0xe0eddddd4d40303,0xf8f8f0f0f7f70707,0xeeee1c1cf8f82828,0x1b1be5e5eaea0909,0x1515ebebdddde1e1,
 0xc3c3e3e31b1b0101,0xf3f338380606eeee,0xf6f6e6e6fffff6f6,0xb9b9e4e40a0a0808,0xd7d7caca03032e2e,0x3838e1e10101ffff,0xe1e1cece2020ebeb,
 0x505e2e2fefe1212,0xdede1515f9f92b2b,0x808595905051717,0x1515000008080202,0xe0e16160b0be6e6,0xfdfd2f2f2222e9e9,0xf1f1e7e7fbfb0202,
 0xe0ef5f503030000,0xfbfbe9e92727b9b9,0x11113838e9e94c4c,0x3030eeee0d0df8f8,0x2323464600002424,0xdcdcd8d80f0ff7f7,0xd7d73434f9f9fafa,
 0x202fdfd25252525,0xe6e60909f6f6,0x2d2dd7d7fefedddd,0xd8d8f5f50404f2f2,0xf9f90b0b3f3f0909,0x3232d6d6f4f41010,0x1313333300000808,
 0xfbfbfdfd1010f1f1,0xd2d20e0ee8e81616,0x7070a0a03031515,0xf0f031311b1b0d0d,0xd4d4fdfdf6f61616,0xdfdf2c2c0a0a1818,0xf7f70e0e01010c0c,
 0xdcdc4b4b0202dede,0xe2e21c1c07070b0b,0xc5c5181812121f1f,0xedede6e6ececf4f4,0x19192020f4f4fcfc,0x3636d8d8f2f2f7f7,0xe7e7131319192525,
 0x808dada05052b2b,0x6060f9f9f9f91919,0x12120b0b08080f0f,0xf2f20f0ffbfbf7f7,0xf8f8d7d714143434,0x2525d8d80505f3f3,0xe1e123232222e5e5,
 0x1c1c00002b2be6e6,0x14140505dfdfe8e8,0xb0befef1616f3f3,0xe5e5ebebd9d92b2b,0x2626e0e01e1e1d1d,0xd0d0dbdbf4f40d0d,0x10103030e4e4e4e4,
 0xdddd7070fafa1010,0x282832321313f5f5,0x383803031313dbdb,0xccccfefe2d2deeee,0xd1d1d5d50f0feded,0x14142424e9e90f0f,0x3434050500000a0a,
 0xd7d72121e6e67171,0x606f9f922222525,0x16160e0eabab1818,0x131313131313f2f2,0xe5e5eeeef4f41717,0x38381414e9e9ebeb,0xefefe3e3e6e60202,
 0xdbdbf2f21818eded,0xf2f23434f3f30c0c,0xf0f2424e2e2dddd,0x4949cacaf1f10808,0xf4f4222225251111,0xf9f90a0a0a0ae6e6,0x12120000efefe5e5,
 0x1616dddd0202e9e9,0xe9e9202015154e4e,0xf7f7ececa9a94141,0x7071d1d1212e7e7,0xf0fd9d9d7d71d1d,0xb0bd3d329291d1d,0x55550101cfcf0e0e,
 0x22220404dbdbfdfd,0x1616eaeae1e11a1a,0xd6d60c0c0b0b0404,0x1e1e1111d7d73333,0x1f1f0606ecec0303,0x1c1c0808fbfbc1c1,0xe7e7d5d50b0b0404,
 0x8081515fcfc0e0e,0x15151010ebeb0d0d,0xf6f6f8f8dfdffbfb,0x5050a0ae5e5e3e3,0xdede2323bcbcfafa,0xdfdf2c2c21214141,0x404c4c409093c3c,
 0xe8e8f6f6e5e5f4f4,0xdadac0c0ffffffff,0xbbbb0404e6e62727,0xdbdb0a0af9f91111,0x1c1c1010ddddbfbf,0x6d6dd7d7e0e01e1e,0xb4b40505fdfd2a2a,
 0x7070101fffff6f6,0xe0e2828ededd9d9,0x161609090404f5f5,0xc8c83d3d0f0ff0f0,0xc0cf6f620201e1e,0x1212d8d80303f7f7,0xebebe9e9f5f52727,
 0x2e2e777743431616,0xfdfdf9f9e9e9e2e2,0x1111e0e0eeee2121,0xf0f0d9d903030808,0xf2f2ebebcece1919,0xf8f82d2d4444f8f8,0xd8d8ececf7f7f9f9,
 0xf0f02d2dbaba0e0e,0xf8f81a1a19192121,0xf3f3d6d603031616,0xe8e825250a0a0808,0xb0b1a1a0404c6c6,0x2e2ed3d33737f4f4,0x202c9c9eeee1a1a,
 0xf2f2eeeef2f2f8f8,0x1e1e1616eeeef3f3,0x1414fafaefefe8e8,0xe8e84f4fc2c22e2e,0xe9e9b0b0dbdb2c2c,0x515159590f0ff1f1,0x2c2cd2d22f2feaea,
 0xdbdbdcdc00001f1f,0x1818eaea0d0dc2c2,0xe0e23231c1c2727,0xc9c931311111dada,0x2727dcdc18181f1f,0x2e2e2a2a1212c6c6,0x444415150606e2e2,
 0xe4e4fafa1919,0x3030fbfb1e1e0e0e,0xe7e7f7f734343232,0x2020d4d4eaea2b2b,0x34343535f6f62929,0x2e2e06060c0c3131,0xc0c01414ffffe0e0,
 0x808d0d043430404,0xffffdbdbcbcbf8f8,0x19191616e0e0e8e8,0x404e0e0f5f52323,0x2d2d2e2ebaba1414,0xf0f01d1d16160505,0x1d1df9f900002e2e,
 0x3535f8f8baba0606,0x191904040b0be9e9,0x4141f0f001010c0c,0x7070c0c37370a0a,0xd0d08082a2a1d1d,0x43431c1c15152222,0x2929dfdf3f3f1010,
 0xeded1919dbdb1515,0xe2e25656f9f92a2a,0xf7f7171712120202,0x303dcdc0f0f3c3c,0x1919ecec0a0a1919,0x131356561616eaea,0x1c1cecec1717fafa,
 0x3030ecece5e54646,0xeaea20200e0eeaea,0x9092b2bfdfde2e2,0xe0ee8e81a1ad9d9,0xe9e91f1ff8f83030,0x29290b0bd8d82b2b,0x1c1c0a0a0303e9e9,
 0xdfdff2f221213434,0xefef1212f4f4c5c5,0x505d4d414141c1c,0xb0bf3f3eaea0b0b,0xf9f9151521211919,0xe3e33e3e0505cbcb,0x2f2ff2f2bfbfc0c0,
 0xfcfc61611a1a1515,0x808e1e1fbfbdddd,0x1818c8c81313f1f1,0x3333c6c6c4c40d0d,0x2626dede1b1bdada,0xf5f51313f3f3e9e9,0x1012424fefe2727,
 0x1616e4e4fbfbcfcf,0x343415152121efef,0xd7d728283a3af1f1,0xf0f00a0a2b2b3d3d,0x60623233333dddd,0x1d1dffffe8e80808,0xcccc1e1e3636f2f2,
 0xd0d050505052424,0xcacaebeb2b2b1111,0x3333f9f929290101,0x1d1d0e0e1414f1f1,0x53530404d8d81414,0xd2d235350c0cf7f7,0x2121f7f7f5f51b1b,
 0xb0b272711112222,0xe4e4dbdb0d0d1d1d,0xb6b616162323d7d7,0x181801010a0a0303,0xfbfb01011b1bd6d6,0xe0e131336360808,0x2b2bcdcdffff3838,
 0xf5f51212dfdf1a1a,0x707d2d20c0c0c0c,0x1111f3f3e8e82727,0x7071717ffff1717,0xd0d0cecef5f5fcfc,0xeded1f1f16160e0e,0xedede3e3ffff2e2e,
 0x202e5e504044848,0x161623231717e7e7,0x10100f0f07071515,0x2626f2f2e6e63434,0xdada09090d0d3838,0xeded1d1d28281e1e,0xf5f5141408080404,
 0x1010d6d6dada3939,0x2b2b3f3f3030efef,0xe4e41f1f02021313,0x1c1cf4f407070404,0x1b1b03030000f8f8,0xdbdb28284d4de7e7,0xe3e3cfcf1010f5f5,
 0xfcfc1212cdcdffff,0xa0afdfd2e2efbfb,0x22223737f9f90e0e,0x3131d4d41d1d0909,0xe2e2d8d8b4b40606,0x2525eded29291111,0xf9f9fdfdeaea0b0b,
 0x70715150707f5f5,0x10100707d3d30d0d,0x1414fcfcdedefcfc,0xe4e4e5e5f8f84242,0x1e1e0101eaeae6e6,0xfafa1b1b18180000,0xdfdfe6e611111414,
 0xc0c1818eeeedfdf,0x111113130808ecec,0x7070202e3e3cece,0xebeb242419190707,0x20203030ecec1212,0xf0f0d0d0f1f10a0a,0x131329290101e8e8,
 0xf6f61313e5e50909,0x17173a3aefeff4f4,0xe3e3333309093636,0x2e2ed7d70d0d3030,0xe6e62828dfdf2828,0x17170505fdfdf0f0,0xecec0a0ae5e5f5f5,
 0xe3e30b0b01011a1a,0xf5f52121fafa2121,0x393911111616cdcd,0xeded09090a0ae8e8,0x1d1dd3d32626d3d3,0xd6d6eeeee3e3f6f6,0xddddf6f6d3d3eded,
 0xfdfdf5f5f3f3e9e9,0xa0ae1e110102121,0x2c2c4040e6e6f0f0,0xdedecfcf2020f6f6,0xafaf1515f0f00c0c,0xfafad0d03030c3c3,0x9091414fafadada,
 0x26261b1bdede1c1c,0xc3c3e9e9eeeef0f0,0xe1e1f6f6ebeb0909,0x303f5f5f9f9f9f9,0xf9f908081d1de6e6,0x1717d2d2f2f2c2c2,0xeeeef9f90101d7d7,
 0x808f2f2baba0a0a,0xfdfd12123434e6e6,0x1212fcfc05051919,0x34341c1cf4f4c4c4,0x2323e8e81e1ee4e4,0x1a1a4242e2e2fdfd,0xf5f508081b1b0707,
 0x171723231717d8d8,0x3b3befeff9f90303,0x202e5e5fbfbefef,0xf7f7f9f92121f3f3,0xefef1a1ae1e15f5f,0x1e1ee4e41515f4f4,0xecec04040909d1d1,
 0xaaaa1e1e2b2bbebe,0xe0e1d1dd3d3fdfd,0x6061919eeeecece,0x606e2e2f9f9d7d7,0x40401b1be0e0fcfc,0xeeee0707f5f53939,0xc0cf7f7dddd2e2e,
 0x2a2a141454540a0a,0xe3e3f1f12121f5f5,0xeeee0101cece0606,0x6b6be6e6c7c73838,0xeeee25253d3d3c3c,0x1d1dffffc2c21e1e,0x1212fafa2a2abfbf,
 0xfafaf1f1f5f5e4e4,0xc0ceded1d1d0202,0x1717eeeed9d90909,0x15150c0ceeee3030,0xf7f72e2e1f1fcbcb,0x1212dddd09091111,0x131301010d0de1e1,
 0x2b2b1a1ad2d22b2b,0x707f4f4fafae1e1,0x4040111122221f1f,0xe8e8181828280505,0x1a1af6f6d0d02323,0xd4d41a1aefefe2e2,0xe0e0f4f407070303,
 0xd5d5f7f7dbdbdbdb,0x101f9f917171616,0x39390a0adfdf2020,0x1717fefe05050b0b,0xe0ef7f7dbdb,0x27274545f8f83232,0x22221212fefe1b1b,
 0xb9b925250505fdfd,0xf5f5dfdf00000a0a,0x1a1ab4b40a0af2f2,0x9090202f0f00303,0x1717c6c611111e1e,0xbcbc18181f1f0101,0xefef2626fefef9f9,
 0x4040e2e2cbcbd3d3,0x1414ecec2c2ce2e2,0xc4c4f5f50000f3f3,0x9092e2ef0f03535,0x606f7f7d4d4,0x202121246464d4d,0x29292b2bf4f49393,
 0x14144040fbfb4b4b,0xffff04040d0debeb,0xededeeee1616ebeb,0x2424080800002121,0xd5d5e7e71c1c0505,0x1a1ac6c60505e4e4,0x2929e9e910100808,
 0xfcfc07077d7d0d0d,0xfdfd2727d2d2e6e6,0xe0ed0d0cece2424,0x1818dbdbffff1313,0x9092424b7b7eeee,0x1313dada9e9e2c2c,0xeaeaeaeadadaefef,
 0x404d6d61f1fd2d2,0xc8c80a0aa9a91414,0xe5e5f6f6caca2c2c,0x2021a1aa7a7d4d4,0x707e6e6f3f3d9d9,0x3737e4e41010fbfb,0xeaea1010e4e4,
 0xefef1515c9c9c6c6,0xe4e4dada40401d1d,0xfdfd1010f0f00606,0x707f2f2ecec3939,0xe8e825250b0b3939,0x808b8b815150707,0xf2f22b2b11110000,
 0x1d1d0808dcdc1111,0x707f6f60000d2d2,0x2121f4f4d6d6f0f0,0xf2f22a2a1313f6f6,0xfbfb141412121e1e,0x1c1cfdfdd8d82020,0xd8d81b1b22222525,
 0x121217170303f8f8,0xf3f30e0eddddefef,0x1313272717172222,0x1414bfbffbfbe2e2,0xfefe1414f3f33d3d,0xe0e0f0fecec0a0a,0x1515fbfb1e1e0b0b,
 0xefef0c0c0e0e1313,0xeeee0606dfdf0404,0xfefe00000101fcfc,0xbebef6f6f3f3fafa,0xe8e8ffff0202f3f3,0xfcfcfefe0202fcfc,0xdddd4141d9d91818,
 0xf6f60202fefe0707,0x101f8f8fdfdffff,0x64642e2ecece3333,0x1c1c0404e8e80c0c,0xf0ff5f5fffffcfc,0xf9f90808fdfd1111,0x1313f7f7f7f7fefe,
 0x30306060e0e0e0e,0xdada1b1b2d2d2727,0xf1f10a0a0c0c1414,0xf0f0f9f9f9f90404,0xcece000013130e0e,0xe8e8f4f409090c0c,0xefefe9e90606fefe,
 0xf1f1eaea2525cccc,0xecece2e2e3e3f9f9,0xf9f90c0c1d1dfdfd,0x5a5a4747d8d8f6f6,0x7071010f7f7eeee,0xf2f20404fbfb0202,0x3e3e2121e3e34b4b,
 0xf5f5090918180b0b,0x909fdfdfcfcf1f1,0x1010ebebe9e9f2f2,0x8080606ededeaea,0xf4f41515fafafcfc,0xc0c0dfdff5f56f6f,0xeeeeededf9f90707,
 0xfcfc0b0bfdfdefef,0xe7e7ededf5f53f3f,0xf5f5ebebfafaf4f4,0x16162d2d00000606,0xffff1a1a0606fefe,0xe0e0c7c7ffff0b0b,0xa0a1616ededf8f8,
 0x3636f3f3f1f13737,0xf6f6e7e7eeeefefe,0xdcdccacaeeeeecec,0x505f9f9f4f41a1a,0x18184444e7e7fcfc,0xf6f6f7f7fbfb0a0a,0x21210f0f07071313,
 0x808f8f80b0b1313,0xa0a09094e4efdfd,0x2d2d3131dede0000,0xfefe0c0cc6c6fafa,0xf6f602021111e5e5,0xe7e71b1b0000e1e1,0xdbdb0404f2f2e6e6,
 0xfbfb060602020808,0x606dbdb0f0f0e0e,0xeeeef4f40909fafa,0xfbfbf7f7ececf7f7,0x6062f2fdbdbd2d2,0xfefe1515dddddede,0xfafaf8f8f7f7fefe,
 0x8083030efeff4f4,0xfdfd1c1cf4f40e0e,0x101f7f701010000,0xf5f5f3f3f7f7fbfb,0xf1f1f1f10a0a0101,0x202fafa0f0fecec,0xfafaf3f31313fafa,
 0xffffe7e711111a1a,0xf9f9ffff0404d9d9,0xf8f8eded1919fbfb,0xebebf1f104042828,0xfefe0404fefefcfc,0x5050707e4e4f0f0,0xf0f003031313f2f2,
 0xd0dfafa0202f5f5,0x3333d9d933334040,0xf8f8f9f9d7d71717,0xf7f7ffff0e0ef4f4,0x2222d5d510102b2b,0x606e9e9dede0909,0x606fdfdfdfdffff,
 0xf1f1babafafaffff,0x707ebeb02020909,0xf9f9f7f740403030,0xdadaeaeafdfd0808,0xe8e8eeeed0d0c2c2,0x202020217171c1c,0xebeb6464fefe0707,
 0x1d1de3e3dddd,0xf6f6f7f70a0afcfc,0xa0afdfd0d0dc4c4,0xf5f5fafaf5f5f4f4,0x303f5f5cfcf1414,0xe0e031311a1a4f4f,0xf9f91c1c2a2a2222,
 0x5050606e2e2fafa,0xd8d82323e8e8bbbb,0xf8f8f9f91515eded,0xf5f5fffffffffefe,0x121211110f0ff6f6,0x1010808f9f9,0xc0c0303f5f5,
 0x404017171e1ee2e2,0x3030c0c1111f0f0,0x3030e0e0606fafa,0x2d2d18181818e8e8,0x60616160d0df6f6,0xf0f00101f8f8f5f5,0xe4e4fefef9f9f1f1,
 0xe4e4fffff8f8f5f5,0xfffffdfdfdfd0606,0x4343ddddeeeedddd,0xe0eeaeaeaeaf6f6,0xf1f1ececf5f5f9f9,0x1e1ee1e1e7e7ecec,0xfefeeaeaf2f2f6f6,
 0xa0a0404f5f50a0a,0xfbfb0202f7f74444,0x606fffff6f61818,0xe3e3f2f2fdfdfdfd,0xe1e1ddddf7f7e8e8,0xf6f6e2e2f7f7f9f9,0xfffff6f6f4f4eeee,
 0xeeeef2f2f8f8e1e1,0xe5e50808ebebdfdf,0x101f4f402020202,0xf0ffafad4d4e9e9,0xa0af8f8f8f8fcfc,0xf5f5f8f803030202,0xb7b74b4be4e4eded,
 0xe2e20e0ee8e8fefe,0x808ededfdfdfdfd,0xdbdb33334343dbdb,0x9090e0e0b0bf3f3,0x707050503030505,0x909fcfc1c1c3b3b,0xd3d3050513131414,
 0xf1f1000006060000,0x38383535bcbcfbfb,0x17170b0bf1f1fefe,0xebeb01010404fdfd,0xeded1a1abcbcc8c8,0x1e1e0a0af0f0eded,0x303fdfdf1f10101,
 0xf8f80c0c3535f2f2,0x101ffff17170202,0xf9f9fafaf0f0fefe,0xd8d84b4ba9a9baba,0xeded0a0af3f3f1f1,0xfefef2f21d1dffff,0xc9c915152323e3e3,
 0xf8f8ebebf8f8f8f8,0xf0f0ffff02020101,0x202efeff2f2bcbc,0xf4f40404fffff3f3,0xf8f8f8f8fcfc2c2c,0x59592b2bf5f5e1e1,0xfefe0606e3e32828,
 0xededfafaf1f11515,0x19192525e2e2d9d9,0xf0f00909f7f71919,0xd0d030304040404,0xececf8f802020707,0xfbfb080805050303,0x34340000d0d00000,
 0xfdfde2e2d4d42e2e,0xc9c9e3e354541010,0x1414f1f1f6f60505,0x606ddddfbfb1010,0xdfdffbfb0e0e0d0d,0x909fefe0707fafa,0x1515ededf9f9fcfc,
 0x1313fdfd0404fafa,0xe3e3f5f50202ffff,0xdedee5e52121e2e2,0xd6d6efef0606f8f8,0xf7f7f9f9f7f70000,0xefefe4e42828dcdc,0xf7f7f2f20e0eefef,
 0xf6f6f5f5f4f40101,0xa0af9f9fbfb1f1f,0xf8f8fafaefef0c0c,0xebebfefefafa1212,0xd4d4fdfd07079292,0xebebfbfbf7f7f2f2,0xfdfde8e8ecec0808,
 0xf6f6f4f4f7f71313,0xf8f8e9e9e4e40a0a,0xfffff0f00000f7f7,0x1c1cbdbdf7f70202,0x505dada0202f4f4,0x9090707d8d8f5f5,0x2727fffff2f23d3d,
 0x131311112e2e0000,0xeded0303dede0202,0xd0d0444403032020,0xe1e1191928280a0a,0xfcfc050500000808,0x5151f8f8fefef9f9,0x9090303fbfbf7f7,
 0x2020000fcfcd2d2,0x2021e1ed9d9f6f6,0xd0d0a0af5f53030,0xfcfc0202fcfcdddd,0xb6b61818e6e60101,0xeeee0808eeee2b2b,0x3030101fbfb0c0c,
 0xf5f5f4f404043b3b,0x505ffff08081414,0xc6c6ffff3939f0f0,0xf5f52b2b0909fbfb,0x36360e0ed9d9f0f0,0xfafa05051414ebeb,0xe5e52525e6e60c0c,
 0x18180f0ff0f0f0f0,0xf5f50404fbfbe0e0,0x606e8e8cdcdfafa,0xf5f50101f4f4dede,0xfffffdfd0606,0x4444d5d5d5d57f7f,0xc0cf1f1fafa1010,
 0xf9f9fdfd0404d6d6,0x2424020257571b1b,0x30300000e0ecece,0x404e9e9f5f51a1a,0xffff2b2bfafa1313,0xf0f0edededed1818,0xfbfbccccfefe0303,
 0xf4f45555e5e58282,0xf7f7d0d0efefffff,0xebebddddfafa2828,0xeaea4e4ef4f4e0e0,0xececd8d8f6f62a2a,0x5050d0d0303fefe,0xe5e51a1a0b0bdcdc,
 0xf7f7eded1010f0f0,0xe7e7efef0606f7f7,0x6666252529296161,0x70710100e0e0f0f,0xf5f5efeffcfcf0f0,0x4c4ccbcb21213e3e,0xfefefffffbfbfcfc,
 0xf1f1f4f40000f7f7,0xf7f71313e3e3f2f2,0xefeffefef6f6eded,0xfbfbf8f80606fafa,0x4646e6e6efef,0xf9f9fefef8f8fbfb,0xeeee0303fdfdfbfb,
 0xf3f3c1c1e3e3e5e5,0xf0f0e8e8fcfcf6f6,0xf6f6f7f70808e5e5,0xe7e7fafae9e9ffff,0xeeeef4f4e8e8e9e9,0xfafafbfb16160505,0x202e9e9f8f85151,
 0xf2f2f8f8cfcf1313,0xf7f7f9f91a1aefef,0xebebd4d42727ecec,0xefeff2f20707e0e0,0xa0aeded02020606,0x3131aaaaeded0101,0xfcfcd5d5fafa0505,
 0xfcfc0404f2f2fbfb,0xc1c1f8f848483737,0xd5d5010106060c0c,0xf8f80d0dfefe0606,0x161658582f2f1c1c,0x2929181815150909,0xf5f5fafa03030303,
 0xececf5f5eeee0404,0xf4f4f5f5fdfd0202,0xf2f2fefefefefbfb,0xdadadcdcc0c03131,0xeeeef8f8f4f41111,0x1d1dfdfd01010909,0x2c2ce3e3c4c40f0f,
